node {
  name: "global_step/Initializer/zeros"
  op: "Const"
  attr {
    key: "_class"
    value {
      list {
        s: "loc:@global_step"
      }
    }
  }
  attr {
    key: "_output_shapes"
    value {
      list {
        shape {
        }
      }
    }
  }
  attr {
    key: "dtype"
    value {
      type: DT_INT64
    }
  }
  attr {
    key: "value"
    value {
      tensor {
        dtype: DT_INT64
        tensor_shape {
        }
        int64_val: 0
      }
    }
  }
}
node {
  name: "global_step"
  op: "VariableV2"
  attr {
    key: "_class"
    value {
      list {
        s: "loc:@global_step"
      }
    }
  }
  attr {
    key: "_output_shapes"
    value {
      list {
        shape {
        }
      }
    }
  }
  attr {
    key: "container"
    value {
      s: ""
    }
  }
  attr {
    key: "dtype"
    value {
      type: DT_INT64
    }
  }
  attr {
    key: "shape"
    value {
      shape {
      }
    }
  }
  attr {
    key: "shared_name"
    value {
      s: ""
    }
  }
}
node {
  name: "global_step/Assign"
  op: "Assign"
  input: "global_step"
  input: "global_step/Initializer/zeros"
  attr {
    key: "T"
    value {
      type: DT_INT64
    }
  }
  attr {
    key: "_class"
    value {
      list {
        s: "loc:@global_step"
      }
    }
  }
  attr {
    key: "_output_shapes"
    value {
      list {
        shape {
        }
      }
    }
  }
  attr {
    key: "use_locking"
    value {
      b: true
    }
  }
  attr {
    key: "validate_shape"
    value {
      b: true
    }
  }
}
node {
  name: "global_step/read"
  op: "Identity"
  input: "global_step"
  attr {
    key: "T"
    value {
      type: DT_INT64
    }
  }
  attr {
    key: "_class"
    value {
      list {
        s: "loc:@global_step"
      }
    }
  }
  attr {
    key: "_output_shapes"
    value {
      list {
        shape {
        }
      }
    }
  }
}
node {
  name: "global_step/IsVariableInitialized"
  op: "IsVariableInitialized"
  input: "global_step"
  attr {
    key: "_class"
    value {
      list {
        s: "loc:@global_step"
      }
    }
  }
  attr {
    key: "_output_shapes"
    value {
      list {
        shape {
        }
      }
    }
  }
  attr {
    key: "dtype"
    value {
      type: DT_INT64
    }
  }
}
node {
  name: "global_step/cond/Switch"
  op: "Switch"
  input: "global_step/IsVariableInitialized"
  input: "global_step/IsVariableInitialized"
  attr {
    key: "T"
    value {
      type: DT_BOOL
    }
  }
  attr {
    key: "_output_shapes"
    value {
      list {
        shape {
        }
        shape {
        }
      }
    }
  }
}
node {
  name: "global_step/cond/switch_t"
  op: "Identity"
  input: "global_step/cond/Switch:1"
  attr {
    key: "T"
    value {
      type: DT_BOOL
    }
  }
  attr {
    key: "_output_shapes"
    value {
      list {
        shape {
        }
      }
    }
  }
}
node {
  name: "global_step/cond/switch_f"
  op: "Identity"
  input: "global_step/cond/Switch"
  attr {
    key: "T"
    value {
      type: DT_BOOL
    }
  }
  attr {
    key: "_output_shapes"
    value {
      list {
        shape {
        }
      }
    }
  }
}
node {
  name: "global_step/cond/pred_id"
  op: "Identity"
  input: "global_step/IsVariableInitialized"
  attr {
    key: "T"
    value {
      type: DT_BOOL
    }
  }
  attr {
    key: "_output_shapes"
    value {
      list {
        shape {
        }
      }
    }
  }
}
node {
  name: "global_step/cond/read"
  op: "Identity"
  input: "global_step/cond/read/Switch:1"
  attr {
    key: "T"
    value {
      type: DT_INT64
    }
  }
  attr {
    key: "_output_shapes"
    value {
      list {
        shape {
        }
      }
    }
  }
}
node {
  name: "global_step/cond/read/Switch"
  op: "RefSwitch"
  input: "global_step"
  input: "global_step/cond/pred_id"
  attr {
    key: "T"
    value {
      type: DT_INT64
    }
  }
  attr {
    key: "_class"
    value {
      list {
        s: "loc:@global_step"
      }
    }
  }
  attr {
    key: "_output_shapes"
    value {
      list {
        shape {
        }
        shape {
        }
      }
    }
  }
}
node {
  name: "global_step/cond/Switch_1"
  op: "Switch"
  input: "global_step/Initializer/zeros"
  input: "global_step/cond/pred_id"
  attr {
    key: "T"
    value {
      type: DT_INT64
    }
  }
  attr {
    key: "_class"
    value {
      list {
        s: "loc:@global_step"
      }
    }
  }
  attr {
    key: "_output_shapes"
    value {
      list {
        shape {
        }
        shape {
        }
      }
    }
  }
}
node {
  name: "global_step/cond/Merge"
  op: "Merge"
  input: "global_step/cond/Switch_1"
  input: "global_step/cond/read"
  attr {
    key: "N"
    value {
      i: 2
    }
  }
  attr {
    key: "T"
    value {
      type: DT_INT64
    }
  }
  attr {
    key: "_output_shapes"
    value {
      list {
        shape {
        }
        shape {
        }
      }
    }
  }
}
node {
  name: "global_step/add/y"
  op: "Const"
  attr {
    key: "_output_shapes"
    value {
      list {
        shape {
        }
      }
    }
  }
  attr {
    key: "dtype"
    value {
      type: DT_INT64
    }
  }
  attr {
    key: "value"
    value {
      tensor {
        dtype: DT_INT64
        tensor_shape {
        }
        int64_val: 0
      }
    }
  }
}
node {
  name: "global_step/add"
  op: "Add"
  input: "global_step/cond/Merge"
  input: "global_step/add/y"
  attr {
    key: "T"
    value {
      type: DT_INT64
    }
  }
  attr {
    key: "_output_shapes"
    value {
      list {
        shape {
        }
      }
    }
  }
}
node {
  name: "tensors/component_0"
  op: "Const"
  device: "/device:CPU:0"
  attr {
    key: "_output_shapes"
    value {
      list {
        shape {
          dim {
            size: 739
          }
        }
      }
    }
  }
  attr {
    key: "dtype"
    value {
      type: DT_DOUBLE
    }
  }
  attr {
    key: "value"
    value {
      tensor {
        dtype: DT_DOUBLE
        tensor_shape {
          dim {
            size: 739
          }
        }
        tensor_content: "q=\n\327\243p\371?\244p=\n\327\243\374?=\n\327\243p=\006@\327\243p=\n\327\377?\205\353Q\270\036\205\003@q=\n\327\243p\007@H\341z\024\256G\021@\217\302\365(\\\217\362?\270\036\205\353Q\270\366?\205\353Q\270\036\205\003@\354Q\270\036\205\353\371?H\341z\024\256G\022@q=\n\327\243p\001@\354Q\270\036\205\353\371?{\024\256G\341z\014@H\341z\024\256G\375?\\\217\302\365(\\\026@\232\231\231\231\231\231\365?=\n\327\243p=\000@\270\036\205\353Q\270\366?ffffff\376?=\n\327\243p=\000@\315\314\314\314\314\314\010@\232\231\231\231\231\231\361?\354Q\270\036\205\353\001@q=\n\327\243p\001@\244p=\n\327\243\000@\354Q\270\036\205\353\361?\037\205\353Q\270\036\365?\366(\\\217\302\365\370?)\\\217\302\365(\374?H\341z\024\256G\375?\205\353Q\270\036\205\036@\270\036\205\353Q\270\004@\\\217\302\365(\\\367?\037\205\353Q\270\036\003@=\n\327\243p=\000@\000\000\000\000\000\000\006@=\n\327\243p=\000@ffffff\010@=\n\327\243p=\000@\037\205\353Q\270\036\361?\037\205\353Q\270\036\003@\270\036\205\353Q\270\004@\037\205\353Q\270\036\003@\366(\\\217\302\365\016@R\270\036\205\353Q\022@\256G\341z\024\256\377?\037\205\353Q\270\036\001@ffffff\010@\270\036\205\353Q\270\000@\303\365(\\\217\302\375?\024\256G\341z\024\n@\327\243p=\n\327\377?R\270\036\205\353Q\002@\037\205\353Q\270\036\375?R\270\036\205\353Q\002@\303\365(\\\217\302\375?R\270\036\205\353Q\002@R\270\036\205\353Q\002@R\270\036\205\353Q\000@\270\036\205\353Q\270\004@R\270\036\205\353Q\004@R\270\036\205\353Q\004@q=\n\327\243p\001@\366(\\\217\302\365\370?)\\\217\302\365(\374?ffffff\010@R\270\036\205\353Q\004@\354Q\270\036\205\353\003@\354Q\270\036\205\353\005@H\341z\024\256G\020@\270\036\205\353Q\270\002@\024\256G\341z\024\n@333333\373?ffffff\010@\327\243p=\n\327\367?{\024\256G\341z\n@\327\243p=\n\327\377?\000\000\000\000\000\000\006@\232\231\231\231\231\231\001@\000\000\000\000\000\000\010@\232\231\231\231\231\231\001@\000\000\000\000\000\000\004@\205\353Q\270\036\205\363?\000\000\000\000\000\000\022@\232\231\231\231\231\231\005@333333\373?333333\013@\232\231\231\231\231\231\005@\270\036\205\353Q\270\372?ffffff\366?333333\377?\270\036\205\353Q\270\372?ffffff\004@\000\000\000\000\000\000\370?H\341z\024\256G\375?333333\377?H\341z\024\256G\375?333333\363?\232\231\231\231\231\231\005@333333\373?ffffff\000@ffffff\004@\232\231\231\231\231\231\371?ffffff\000@\000\000\000\000\000\000\034@\303\365(\\\217\302\365?\354Q\270\036\205\353\375?=\n\327\243p=\362?\232\231\231\231\231\231\005@ffffff\016@ffffff\004@\270\036\205\353Q\270\002@ffffff\366?333333\373?333333\373?ffffff\000@\037\205\353Q\270\036\001@\000\000\000\000\000\000\010@\315\314\314\314\314\314\374?333333\377?H\341z\024\256G\375?\232\231\231\231\231\231\t@\232\231\231\231\231\231\005@333333\363?ffffff\000@\256G\341z\024\256\373?\000\000\000\000\000\000\032@\232\231\231\231\231\231\005@333333\003@\000\000\000\000\000\000\022@\232\231\231\231\231\231\001@\232\231\231\231\231\231\005@\232\231\231\231\231\231\005@H\341z\024\256G\375?\256G\341z\024\256\373?ffffff\000@\n\327\243p=\n\367?\256G\341z\024\256\r@ffffff\004@ffffff\000@q=\n\327\243p\007@\000\000\000\000\000\000\022@\232\231\231\231\231\231\371?\205\353Q\270\036\205\363?\303\365(\\\217\302\365?\232\231\231\231\231\231\t@333333\377?H\341z\024\256G\365?\n\327\243p=\n\367?\232\231\231\231\231\231\005@\232\231\231\231\231\231\001@\366(\\\217\302\365\370?\000\000\000\000\000\000\022@)\\\217\302\365(\374?\000\000\000\000\000\000\370?\315\314\314\314\314\314\364?ffffff\002@H\341z\024\256G\365?\217\302\365(\\\217\004@ffffff\000@ffffff\000@ffffff\006@\315\314\314\314\314\314\000@\315\314\314\314\314\314\000@\354Q\270\036\205\353\375?\232\231\231\231\231\231\001@{\024\256G\341z\370?\000\000\000\000\000\000\004@\000\000\000\000\000\000\000@ffffff\002@ffffff\000@\256G\341z\024\256\373?\256G\341z\024\256\373?\000\000\000\000\000\000\000@333333\373?\000\000\000\000\000\000\370?\000\000\000\000\000\000\370?\315\314\314\314\314\314\374?\037\205\353Q\270\036\001@\232\231\231\231\231\231\005@\315\314\314\314\314\314\004@\n\327\243p=\n\367?\000\000\000\000\000\000\010@\000\000\000\000\000\000\370?\232\231\231\231\231\231\t@\315\314\314\314\314\314\364?ffffff\000@ffffff\366?ffffff\016@\232\231\231\231\231\231\371?\232\231\231\231\231\231\003@\232\231\231\231\231\231\001@\000\000\000\000\000\000\374?ffffff\002@333333\373?\037\205\353Q\270\036\001@333333\377?333333\003@\232\231\231\231\231\231\001@ffffff\000@ffffff\002@333333\377?\037\205\353Q\270\036\001@\232\231\231\231\231\231\371?H\341z\024\256G\375?\256G\341z\024\256\373?\354Q\270\036\205\353\375?\270\036\205\353Q\270\372?\232\231\231\231\231\231\005@\000\000\000\000\000\000\022@\037\205\353Q\270\036\001@\000\000\000\000\000\000\n@\000\000\000\000\000\000\n@\232\231\231\231\231\231\001@ffffff\004@ffffff\016@\000\000\000\000\000\000\002@\354Q\270\036\205\353\005@ffffff\366?H\341z\024\256G\375?\232\231\231\231\231\231\005@333333\373?ffffff\000@\232\231\231\231\231\231\001@ffffff\010@\232\231\231\231\231\231\001@333333\377?\232\231\231\231\231\231\371?\315\314\314\314\314\314\364?\232\231\231\231\231\231\005@\000\000\000\000\000\000\"@\000\000\000\000\000\000\020@ffffff\366?\000\000\000\000\000\000\004@\232\231\231\231\231\231\001@\000\000\000\000\000\000\022@\000\000\000\000\000\000\010@333333\363?\232\231\231\231\231\231\371?\315\314\314\314\314\314\370?ffffff\000@333333\373?H\341z\024\256G\365?\232\231\231\231\231\231\005@333333\373?H\341z\024\256G\375?H\341z\024\256G\365?\232\231\231\231\231\231\001@\232\231\231\231\231\231\001@ffffff\000@ffffff\004@\037\205\353Q\270\036\001@\232\231\231\231\231\231\t@\000\000\000\000\000\000\004@\217\302\365(\\\217\376?\000\000\000\000\000\000(@ffffff\366?\000\000\000\000\000\000\020@\232\231\231\231\231\231\371?333333\373?\232\231\231\231\231\231\001@\000\000\000\000\000\000\022@333333\377?\000\000\000\000\000\000\032@ffffff\016@\270\036\205\353Q\270\372?\232\231\231\231\231\231\371?R\270\036\205\353Q\021@{\024\256G\341z\370?\037\205\353Q\270\036\001@ffffff\004@\000\000\000\000\000\000\370?\256G\341z\024\256\373?\315\314\314\314\314\314\374?\256G\341z\024\256\373?333333\003@ffffff\000@\232\231\231\231\231\231\005@\354Q\270\036\205\353\005@\000\000\000\000\000\000\000@\n\327\243p=\n\367?\232\231\231\231\231\231\361?\n\327\243p=\n\007@ffffff\366?\000\000\000\000\000\000\020@\037\205\353Q\270\036\001@ffffff\016@333333\373?\000\000\000\000\000\000\000@\205\353Q\270\036\205\363?\000\000\000\000\000\000\032@H\341z\024\256G\375?\315\314\314\314\314\314\364?\303\365(\\\217\302\375?R\270\036\205\353Q\022@\366(\\\217\302\365\370?\037\205\353Q\270\036\003@\303\365(\\\217\302\375?\366(\\\217\302\365\016@\\\217\302\365(\\\367?\270\036\205\353Q\270\002@H\341z\024\256G\361?\232\231\231\231\231\231\365?=\n\327\243p=\000@\366(\\\217\302\365\370?H\341z\024\256G\375?\000\000\000\000\000\000\006@=\n\327\243p=\000@=\n\327\243p=\000@\270\036\205\353Q\270\002@\315\314\314\314\314\314\006@\303\365(\\\217\302\375?\205\353Q\270\036\205\003@\205\353Q\270\036\205\003@ffffff\010@\256G\341z\024\256\373?)\\\217\302\365(\374?ffffff\010@\256G\341z\024\256\377?\256G\341z\024\256\377?\024\256G\341z\024\n@\\\217\302\365(\\\367?)\\\217\302\365(\374?\256G\341z\024\256\377?\366(\\\217\302\365\016@=\n\327\243p=\000@{\024\256G\341z\370?\000\000\000\000\000\000\006@333333\373?\205\353Q\270\036\205\363?\270\036\205\353Q\270\000@\232\231\231\231\231\231\365?H\341z\024\256G\r@\217\302\365(\\\217\362?R\270\036\205\353Q\004@\000\000\000\000\000\000\006@ffffff\376?\270\036\205\353Q\270\002@\\\217\302\365(\\\367?\256G\341z\024\256\013@\\\217\302\365(\\\026@\205\353Q\270\036\205\363?\315\314\314\314\314\314\006@\037\205\353Q\270\036\003@H\341z\024\256G\375?q=\n\327\243p\371?\270\036\205\353Q\270\000@\024\256G\341z\024\372?H\341z\024\256G\375?)\\\217\302\365(\374?\366(\\\217\302\365\370?\354Q\270\036\205\353\361?\205\353Q\270\036\205\003@\037\205\353Q\270\036\361?q=\n\327\243p\371?ffffff\010@R\270\036\205\353Q\004@\270\036\205\353Q\270\002@{\024\256G\341z\370?H\341z\024\256G\361?\232\231\231\231\231\231\365?\024\256G\341z\024\372?\n\327\243p=\n\363?H\341z\024\256G\375?\270\036\205\353Q\270\000@ffffff\376?\205\353Q\270\036\205\001@\270\036\205\353Q\270\004@ffffff\010@\037\205\353Q\270\036\005@\\\217\302\365(\\\367?H\341z\024\256G\361?\205\353Q\270\036\205\363?\354Q\270\036\205\353\001@\327\243p=\n\327\367?\354Q\270\036\205\353\001@\037\205\353Q\270\036\375?\000\000\000\000\000@Q@\037\205\353Q\270\036\375?\205\353Q\270\036\205\001@\n\327\243p=\n\377?\244p=\n\327\243\374?R\270\036\205\353Q\004@)\\\217\302\365(\374?\024\256G\341z\024\372?\217\302\365(\\\217\372?\256G\341z\024\256\377?\205\353Q\270\036\205\003@\256G\341z\024\256\377?\366(\\\217\302\365\016@\366(\\\217\302\365\370?R\270\036\205\353Q\002@\205\353Q\270\036\205\003@\000\000\000\000\000\000\006@\270\036\205\353Q\270\000@R\270\036\205\353Q\002@\205\353Q\270\036\205\003@\354Q\270\036\205\353\001@\354Q\270\036\205\353\001@\024\256G\341z\024\n@\366(\\\217\302\365\370?\232\231\231\231\231\231\365?\000\000\000\000\000\000\006@333333\373?R\270\036\205\353Q\004@)\\\217\302\365(\374?\303\365(\\\217\302\375?=\n\327\243p=\006@ffffff\010@\205\353Q\270\036\205\003@ffffff\376?\205\353Q\270\036\205\001@{\024\256G\341z\370?\354Q\270\036\205\353\003@R\270\036\205\353Q\000@q=\n\327\243p\371?\366(\\\217\302\365\016@\303\365(\\\217\302\375?\000\000\000\000\000\000\006@R\270\036\205\353Q\004@\n\327\243p=\n\377?R\270\036\205\353Q\000@\270\036\205\353Q\270\000@\205\353Q\270\036\205\003@\354Q\270\036\205\353\001@\037\205\353Q\270\036\365?R\270\036\205\353Q\000@\000\000\000\000\000\000\006@H\341z\024\256G\r@\270\036\205\353Q\270\004@R\270\036\205\353Q\002@\366(\\\217\302\365\016@\205\353Q\270\036\205\373?\256G\341z\024\256\377?)\\\217\302\365(\374?\256G\341z\024\256\377?\270\036\205\353Q\270\000@\256G\341z\024\256\373?\270\036\205\353Q\270\000@ffffff\010@\205\353Q\270\036\205\003@\366(\\\217\302\365\016@\270\036\205\353Q\270\000@H\341z\024\256G\375?H\341z\024\256G\375?\000\000\000\000\000\000\022@{\024\256G\341z\370?\315\314\314\314\314\314\002@H\341z\024\256G\375?ffffff\016@\n\327\243p=\n\367?ffffff\002@\366(\\\217\302\365\360?H\341z\024\256G\365?\000\000\000\000\000\000\000@{\024\256G\341z\370?\315\314\314\314\314\314\374?\232\231\231\231\231\231\005@\000\000\000\000\000\000\000@\000\000\000\000\000\000\000@ffffff\002@ffffff\006@H\341z\024\256G\375?333333\003@333333\003@\000\000\000\000\000\000\010@333333\373?\256G\341z\024\256\373?\000\000\000\000\000\000\010@333333\377?333333\377?\232\231\231\231\231\231\t@\n\327\243p=\n\367?\256G\341z\024\256\373?333333\377?ffffff\016@\000\000\000\000\000\000\000@\000\000\000\000\000\000\370?\232\231\231\231\231\231\005@\270\036\205\353Q\270\372?333333\363?ffffff\000@H\341z\024\256G\365?\315\314\314\314\314\314\014@=\n\327\243p=\362?\000\000\000\000\000\000\004@\232\231\231\231\231\231\005@\354Q\270\036\205\353\375?ffffff\002@\n\327\243p=\n\367?333333\013@\000\000\000\000\000\000\026@333333\363?ffffff\006@\315\314\314\314\314\314\002@\315\314\314\314\314\314\374?\366(\\\217\302\365\370?ffffff\000@\232\231\231\231\231\231\371?\315\314\314\314\314\314\374?\256G\341z\024\256\373?{\024\256G\341z\370?\232\231\231\231\231\231\361?333333\003@\315\314\314\314\314\314\360?\366(\\\217\302\365\370?\000\000\000\000\000\000\010@\000\000\000\000\000\000\004@ffffff\002@\000\000\000\000\000\000\370?\366(\\\217\302\365\360?H\341z\024\256G\365?\232\231\231\231\231\231\371?\270\036\205\353Q\270\362?\315\314\314\314\314\314\374?ffffff\000@\354Q\270\036\205\353\375?333333\001@R\270\036\205\353Q\004@\000\000\000\000\000\000\010@\315\314\314\314\314\314\004@\n\327\243p=\n\367?\366(\\\217\302\365\360?333333\363?R\270\036\205\353Q\004@\354Q\270\036\205\353\005@\n\327\243p=\n\373?\270\036\205\353Q\270\004@\354Q\270\036\205\353\005@\000\000\000\000\000\000\006@\256G\341z\024\256\013@R\270\036\205\353Q\022@\232\231\231\231\231\231\365?\\\217\302\365(\\\024@\\\217\302\365(\\\367?\366(\\\217\302\365\370?\024\256G\341z\024\n@H\341z\024\256G\375?\037\205\353Q\270\036\001@ffffff\376?\270\036\205\353Q\270\000@\315\314\314\314\314\314\006@ffffff\376?\024\256G\341z\024\366?\205\353Q\270\036\205\363?)\\\217\302\365(\374?\354Q\270\036\205\353\001@H\341z\024\256G @\270\036\205\353Q\270\000@=\n\327\243p=\000@H\341z\024\256G\022@\315\314\314\314\314\314\010@H\341z\024\256G\022@\256G\341z\024\256\377?\205\353Q\270\036\205\003@333333\373?\256G\341z\024\256\013@\303\365(\\\217\302\375?\205\353Q\270\036\205\003@\256G\341z\024\256\373?=\n\327\243p=\000@{\024\256G\341z\370?\\\217\302\365(\\\026@\205\353Q\270\036\205\373?\303\365(\\\217\302\375?\256G\341z\024\256\373?\354Q\270\036\205\353\003@\256G\341z\024\256\373?\270\036\205\353Q\270\000@\256G\341z\024\256\013@H\341z\024\256G\375?q=\n\327\243p\001@q=\n\327\243p\001@\205\353Q\270\036\205\003@\354Q\270\036\205\353\001@H\341z\024\256G\020@ffffff\010@ffffff\010@\270\036\205\353Q\270\000@ffffff\010@ffffff\376?ffffff\010@\354Q\270\036\205\353\001@H\341z\024\256G\375?333333\373?R\270\036\205\353Q\000@R\270\036\205\353Q\000@\024\256G\341z\024\n@ffffff\n@H\341z\024\256G\375?\000\000\000\000\000\000\006@\000\000\000\000\000\000\006@R\270\036\205\353Q\000@\270\036\205\353Q\270\002@\n\327\243p=\n\001@\000\000\000\000\000\000\n@\270\036\205\353Q\270\002@{\024\256G\341z\370?\000\000\000\000\000\000\006@\256G\341z\024\256\377?q=\n\327\243p\371?\232\231\231\231\231\231\365?\354Q\270\036\205\353\005@\205\353Q\270\036\205\003@\270\036\205\353Q\270\004@\256G\341z\024\256\373?H\341z\024\256G\375?R\270\036\205\353Q\364?\n\327\243p=\n\373?R\270\036\205\353Q\002@\327\243p=\n\327\377?\205\353Q\270\036\205\003@\n\327\243p=\n\363?{\024\256G\341z\016@\\\217\302\365(\\\367?\256G\341z\024\256\377?\256G\341z\024\256\377?\327\243p=\n\327\017@ffffff\376?R\270\036\205\353Q\002@\n\327\243p=\n\363?\000\000\000\000\000\000\n@\354Q\270\036\205\353\361?\341z\024\256G\341\016@\354Q\270\036\205\353\003@\256G\341z\024\256\373?\354Q\270\036\205\353\003@\270\036\205\353Q\270\000@ffffff\010@\037\205\353Q\270\036\005@\256G\341z\024\256\373?\256G\341z\024\256\013@q=\n\327\243p\005@\270\036\205\353Q\270\000@)\\\217\302\365(\374?\315\314\314\314\314\314\006@\256G\341z\024\256\013@\366(\\\217\302\365\016@H\341z\024\256G\375?)\\\217\302\365(\374?\354Q\270\036\205\353\001@\270\036\205\353Q\270\004@)\\\217\302\365(\374?\354Q\270\036\205\353\001@\270\036\205\353Q\270\004@\270\036\205\353Q\270\000@\354Q\270\036\205\353\003@\270\036\205\353Q\270\000@H\341z\024\256G\375?H\341z\024\256G\375?\037\205\353Q\270\036\005@\256G\341z\024\256\013@)\\\217\302\365(\374?ffffff\376?\256G\341z\024\256\377?\354Q\270\036\205\353\001@\000\000\000\000\000\000\006@\205\353Q\270\036\205\003@\354Q\270\036\205\353\001@\366(\\\217\302\365\370?\205\353Q\270\036\205\363?\303\365(\\\217\302\375?H\341z\024\256G\375?\000\000\000\000\000\000\006@\024\256G\341z\024\n@=\n\327\243p=\000@333333\373?\270\036\205\353Q\270\366?\256G\341z\024\256\377?\315\314\314\314\314\314\006@\\\217\302\365(\\\367?\024\256G\341z\024\n@H\341z\024\256G\375?\000\000\000\000\000\000\006@\354Q\270\036\205\353\001@ffffff\010@\205\353Q\270\036\205\363?\\\217\302\365(\\\024@\270\036\205\353Q\270\000@\000\000\000\000\000\000\006@\270\036\205\353Q\270\004@R\270\036\205\353Q\002@\354Q\270\036\205\353\001@{\024\256G\341z\036@\232\231\231\231\231\231\365?{\024\256G\341z\034@\270\036\205\353Q\270\002@\366(\\\217\302\365\016@\205\353Q\270\036\205\036@\037\205\353Q\270\036\001@q=\n\327\243p\005@H\341z\024\256G\022@\354Q\270\036\205\353\003@\270\036\205\353Q\270\000@\354Q\270\036\205\353\003@q=\n\327\243p\032@\270\036\205\353Q\270\000@\205\353Q\270\036\205\036@\\\217\302\365(\\\367?\270\036\205\353Q\270\002@H\341z\024\256G\371?\205\353Q\270\036\205\001@R\270\036\205\353Q\002@\303\365(\\\217\302\375?\327\243p=\n\327\377?\n\327\243p=\n\373?\341z\024\256G\341\366?ffffff\010@\354Q\270\036\205\353\003@=\n\327\243p=\020@q=\n\327\243p\001@\\\217\302\365(\\\026@R\270\036\205\353Q\002@\256G\341z\024\256\373?\037\205\353Q\270\036\365?\205\353Q\270\036\205\363?\n\327\243p=\n\363?\327\243p=\n\327\363?\037\205\353Q\270\036\365?\270\036\205\353Q\270\000@R\270\036\205\353Q\364?\315\314\314\314\314\314\006@=\n\327\243p=\000@\270\036\205\353Q\270\000@\244p=\n\327\243\000@q=\n\327\243p\007@\303\365(\\\217\302\375?\000\000\000\000\000\000\n@\000\000\000\000\000\000\006@\037\205\353Q\270\036\003@H\341z\024\256G\375?{\024\256G\341z\014@ffffff\376?=\n\327\243p=\362?\256G\341z\024\256\373?\\\217\302\365(\\\026@\037\205\353Q\270\036\365?"
      }
    }
  }
}
node {
  name: "tensors/component_1"
  op: "Const"
  device: "/device:CPU:0"
  attr {
    key: "_output_shapes"
    value {
      list {
        shape {
          dim {
            size: 739
          }
        }
      }
    }
  }
  attr {
    key: "dtype"
    value {
      type: DT_DOUBLE
    }
  }
  attr {
    key: "value"
    value {
      tensor {
        dtype: DT_DOUBLE
        tensor_shape {
          dim {
            size: 739
          }
        }
        tensor_content: "\315\314\314\314\314\314\000@\315\314\314\314\314\314\002@ffffff\014@\315\314\314\314\314\314\004@ffffff\010@333333\r@\000\000\000\000\000\000\022@333333\367?\232\231\231\231\231\231\375?ffffff\010@\315\314\314\314\314\314\000@\000\000\000\000\000\000\023@\000\000\000\000\000\000\006@\315\314\314\314\314\314\000@ffffff\020@\315\314\314\314\314\314\002@\000\000\000\000\000\000\024@\000\000\000\000\000\000\374?\315\314\314\314\314\314\004@\232\231\231\231\231\231\375?\232\231\231\231\231\231\003@\315\314\314\314\314\314\004@\000\000\000\000\000\000\016@\205\353Q\270\036\205\363?ffffff\006@\000\000\000\000\000\000\006@333333\005@\315\314\314\314\314\314\364?333333\373?ffffff\000@\000\000\000\000\000\000\002@\315\314\314\314\314\314\002@\000\000\000\000\000\000\027@\232\231\231\231\231\231\t@ffffff\376?\000\000\000\000\000\000\010@\315\314\314\314\314\314\004@\232\231\231\231\231\231\013@\315\314\314\314\314\314\004@\000\000\000\000\000\000\016@\315\314\314\314\314\314\004@=\n\327\243p=\362?\000\000\000\000\000\000\010@\232\231\231\231\231\231\t@\000\000\000\000\000\000\010@\232\231\231\231\231\231\021@\000\000\000\000\000\000\023@ffffff\004@\232\231\231\231\231\231\005@\000\000\000\000\000\000\016@333333\005@333333\003@333333\017@\315\314\314\314\314\314\004@333333\007@333333\003@333333\007@\232\231\231\231\231\231\003@333333\007@333333\007@333333\005@\232\231\231\231\231\231\t@\315\314\314\314\314\314\010@\315\314\314\314\314\314\010@\000\000\000\000\000\000\006@ffffff\000@\000\000\000\000\000\000\002@\000\000\000\000\000\000\016@\315\314\314\314\314\314\010@\315\314\314\314\314\314\010@\232\231\231\231\231\231\013@\000\000\000\000\000\000\022@333333\007@333333\017@333333\001@\000\000\000\000\000\000\016@\000\000\000\000\000\000\000@\000\000\000\000\000\000\020@\315\314\314\314\314\314\004@\232\231\231\231\231\231\013@ffffff\006@\000\000\000\000\000\000\016@\315\314\314\314\314\314\006@\315\314\314\314\314\314\010@\232\231\231\231\231\231\371?\000\000\000\000\000\000\023@\232\231\231\231\231\231\013@\232\231\231\231\231\231\001@ffffff\020@\232\231\231\231\231\231\013@333333\001@\232\231\231\231\231\231\375?ffffff\004@333333\001@\232\231\231\231\231\231\t@\000\000\000\000\000\000\000@333333\003@ffffff\004@333333\003@\315\314\314\314\314\314\370?\232\231\231\231\231\231\013@\232\231\231\231\231\231\001@333333\005@\232\231\231\231\231\231\t@\315\314\314\314\314\314\000@333333\005@\000\000\000\000\000\000\026@\315\314\314\314\314\314\374?\232\231\231\231\231\231\003@333333\367?\232\231\231\231\231\231\013@\232\231\231\231\231\231\021@\232\231\231\231\231\231\t@ffffff\010@\232\231\231\231\231\231\375?\232\231\231\231\231\231\001@\232\231\231\231\231\231\001@333333\005@\000\000\000\000\000\000\006@\000\000\000\000\000\000\016@\315\314\314\314\314\314\002@ffffff\004@333333\003@333333\017@\232\231\231\231\231\231\013@\315\314\314\314\314\314\370?333333\005@\000\000\000\000\000\000\002@\000\000\000\000\000\000\025@\232\231\231\231\231\231\013@ffffff\010@\000\000\000\000\000\000\023@ffffff\006@\232\231\231\231\231\231\013@\232\231\231\231\231\231\013@333333\003@\000\000\000\000\000\000\002@333333\005@ffffff\376?\232\231\231\231\231\231\021@\232\231\231\231\231\231\t@333333\005@\000\000\000\000\000\000\016@\000\000\000\000\000\000\023@\315\314\314\314\314\314\000@\232\231\231\231\231\231\371?\315\314\314\314\314\314\374?333333\017@ffffff\004@\000\000\000\000\000\000\374?ffffff\376?\232\231\231\231\231\231\013@ffffff\006@\315\314\314\314\314\314\000@\000\000\000\000\000\000\023@\315\314\314\314\314\314\002@\000\000\000\000\000\000\000@333333\373?333333\007@\000\000\000\000\000\000\374?333333\013@333333\005@333333\005@ffffff\014@\232\231\231\231\231\231\005@\232\231\231\231\231\231\005@\232\231\231\231\231\231\003@ffffff\006@ffffff\000@\315\314\314\314\314\314\010@333333\005@333333\007@333333\005@\000\000\000\000\000\000\002@\000\000\000\000\000\000\002@\315\314\314\314\314\314\004@\232\231\231\231\231\231\001@\000\000\000\000\000\000\000@\000\000\000\000\000\000\000@\315\314\314\314\314\314\002@\000\000\000\000\000\000\006@\232\231\231\231\231\231\013@ffffff\n@ffffff\376?\000\000\000\000\000\000\016@\000\000\000\000\000\000\000@333333\017@333333\373?333333\005@\232\231\231\231\231\231\375?\232\231\231\231\231\231\021@\315\314\314\314\314\314\000@\315\314\314\314\314\314\010@ffffff\006@\000\000\000\000\000\000\002@333333\007@\232\231\231\231\231\231\001@\000\000\000\000\000\000\006@ffffff\004@ffffff\010@ffffff\006@333333\005@333333\007@ffffff\004@\000\000\000\000\000\000\006@\315\314\314\314\314\314\000@333333\003@\000\000\000\000\000\000\002@\232\231\231\231\231\231\003@333333\001@\232\231\231\231\231\231\013@\000\000\000\000\000\000\023@\000\000\000\000\000\000\006@\000\000\000\000\000\000\020@\000\000\000\000\000\000\020@ffffff\006@\232\231\231\231\231\231\t@\232\231\231\231\231\231\021@\315\314\314\314\314\314\006@ffffff\014@\232\231\231\231\231\231\375?333333\003@\232\231\231\231\231\231\013@\232\231\231\231\231\231\001@333333\005@ffffff\006@\000\000\000\000\000\000\016@ffffff\006@ffffff\004@\315\314\314\314\314\314\000@333333\373?\232\231\231\231\231\231\013@\000\000\000\000\000\000\032@\000\000\000\000\000\000\022@\232\231\231\231\231\231\375?\315\314\314\314\314\314\010@ffffff\006@\000\000\000\000\000\000\023@\000\000\000\000\000\000\016@\315\314\314\314\314\314\370?\315\314\314\314\314\314\000@ffffff\000@333333\005@\232\231\231\231\231\231\001@\000\000\000\000\000\000\374?\232\231\231\231\231\231\013@\232\231\231\231\231\231\001@333333\003@\000\000\000\000\000\000\374?ffffff\006@ffffff\006@333333\005@\232\231\231\231\231\231\t@\000\000\000\000\000\000\006@333333\017@\315\314\314\314\314\314\010@\000\000\000\000\000\000\004@\000\000\000\000\000\000 @\232\231\231\231\231\231\375?\000\000\000\000\000\000\022@\315\314\314\314\314\314\000@\232\231\231\231\231\231\001@ffffff\006@\000\000\000\000\000\000\023@ffffff\004@\000\000\000\000\000\000\025@\232\231\231\231\231\231\021@333333\001@\315\314\314\314\314\314\000@\232\231\231\231\231\231\022@ffffff\000@\000\000\000\000\000\000\006@\232\231\231\231\231\231\t@\000\000\000\000\000\000\000@\000\000\000\000\000\000\002@\315\314\314\314\314\314\002@\000\000\000\000\000\000\002@ffffff\010@333333\005@\232\231\231\231\231\231\013@ffffff\014@333333\005@ffffff\376?\315\314\314\314\314\314\364?333333\r@\232\231\231\231\231\231\375?\000\000\000\000\000\000\022@\000\000\000\000\000\000\006@\232\231\231\231\231\231\021@\232\231\231\231\231\231\001@333333\005@\232\231\231\231\231\231\371?\000\000\000\000\000\000\025@333333\003@333333\373?333333\003@\000\000\000\000\000\000\023@ffffff\000@\000\000\000\000\000\000\010@333333\003@\232\231\231\231\231\231\021@ffffff\376?333333\007@\270\036\205\353Q\270\362?\000\000\000\000\000\000\374?\315\314\314\314\314\314\004@ffffff\000@\315\314\314\314\314\314\002@\232\231\231\231\231\231\013@\315\314\314\314\314\314\004@\315\314\314\314\314\314\004@333333\007@ffffff\014@333333\003@ffffff\010@ffffff\010@\000\000\000\000\000\000\016@\232\231\231\231\231\231\001@\000\000\000\000\000\000\002@\000\000\000\000\000\000\016@ffffff\004@ffffff\004@333333\017@ffffff\376?\000\000\000\000\000\000\002@ffffff\004@\232\231\231\231\231\231\021@\315\314\314\314\314\314\004@\000\000\000\000\000\000\000@\232\231\231\231\231\231\013@333333\001@\315\314\314\314\314\314\370?333333\005@\000\000\000\000\000\000\374?\000\000\000\000\000\000\021@333333\367?\315\314\314\314\314\314\010@\232\231\231\231\231\231\013@\232\231\231\231\231\231\003@333333\007@ffffff\376?ffffff\020@\000\000\000\000\000\000\024@\315\314\314\314\314\314\370?ffffff\014@\000\000\000\000\000\000\010@\315\314\314\314\314\314\002@\315\314\314\314\314\314\000@333333\005@\315\314\314\314\314\314\000@\315\314\314\314\314\314\002@\000\000\000\000\000\000\002@ffffff\000@\315\314\314\314\314\314\364?ffffff\010@=\n\327\243p=\362?\315\314\314\314\314\314\000@\000\000\000\000\000\000\016@\315\314\314\314\314\314\010@333333\007@\000\000\000\000\000\000\000@\270\036\205\353Q\270\362?\000\000\000\000\000\000\374?\315\314\314\314\314\314\000@\000\000\000\000\000\000\370?\315\314\314\314\314\314\002@333333\005@\232\231\231\231\231\231\003@ffffff\006@ffffff\n@\000\000\000\000\000\000\016@ffffff\n@ffffff\376?\270\036\205\353Q\270\362?\315\314\314\314\314\314\370?\315\314\314\314\314\314\006@\000\000\000\000\000\000\000@\315\314\314\314\314\314\006@333333\003@\232\231\231\231\231\231\001@333333\003@ffffff\006@ffffff\004@\315\314\314\314\314\314\002@\232\231\231\231\231\231\t@\000\000\000\000\000\000\002@\315\314\314\314\314\314\000@333333\001@ffffff\004@ffffff\010@ffffff\004@\232\231\231\231\231\231\021@ffffff\000@\315\314\314\314\314\314\006@ffffff\010@\232\231\231\231\231\231\013@333333\005@\315\314\314\314\314\314\006@ffffff\010@ffffff\006@ffffff\006@333333\017@ffffff\000@\000\000\000\000\000\000\374?\232\231\231\231\231\231\013@333333\001@\315\314\314\314\314\314\010@\000\000\000\000\000\000\002@333333\003@ffffff\014@\000\000\000\000\000\000\016@ffffff\010@\232\231\231\231\231\231\003@ffffff\006@\000\000\000\000\000\000\000@\315\314\314\314\314\314\010@333333\005@\315\314\314\314\314\314\000@\232\231\231\231\231\231\021@333333\003@\232\231\231\231\231\231\013@\232\231\231\231\231\231\t@ffffff\004@333333\005@333333\005@ffffff\010@ffffff\006@333333\373?333333\005@\232\231\231\231\231\231\013@\000\000\000\000\000\000\021@\232\231\231\231\231\231\t@\315\314\314\314\314\314\006@\232\231\231\231\231\231\021@\000\000\000\000\000\000\002@ffffff\004@\000\000\000\000\000\000\002@ffffff\004@333333\005@\232\231\231\231\231\231\001@333333\005@\000\000\000\000\000\000\016@ffffff\010@\232\231\231\231\231\231\021@333333\005@\315\314\314\314\314\314\002@333333\003@\000\000\000\000\000\000\023@ffffff\000@\000\000\000\000\000\000\010@333333\003@\232\231\231\231\231\231\021@ffffff\376?333333\007@\270\036\205\353Q\270\362?\000\000\000\000\000\000\374?\315\314\314\314\314\314\004@ffffff\000@\315\314\314\314\314\314\002@\232\231\231\231\231\231\013@\315\314\314\314\314\314\004@\315\314\314\314\314\314\004@333333\007@ffffff\014@333333\003@ffffff\010@ffffff\010@\000\000\000\000\000\000\016@\232\231\231\231\231\231\001@\000\000\000\000\000\000\002@\000\000\000\000\000\000\016@ffffff\004@ffffff\004@333333\017@ffffff\376?\000\000\000\000\000\000\002@ffffff\004@\232\231\231\231\231\231\021@\315\314\314\314\314\314\004@\000\000\000\000\000\000\000@\232\231\231\231\231\231\013@333333\001@\315\314\314\314\314\314\370?333333\005@\000\000\000\000\000\000\374?\000\000\000\000\000\000\021@333333\367?\315\314\314\314\314\314\010@\232\231\231\231\231\231\013@\232\231\231\231\231\231\003@333333\007@ffffff\376?ffffff\020@\000\000\000\000\000\000\024@\315\314\314\314\314\314\370?ffffff\014@\000\000\000\000\000\000\010@\315\314\314\314\314\314\002@\315\314\314\314\314\314\000@333333\005@\315\314\314\314\314\314\000@\315\314\314\314\314\314\002@\000\000\000\000\000\000\002@ffffff\000@\315\314\314\314\314\314\364?ffffff\010@=\n\327\243p=\362?\315\314\314\314\314\314\000@\000\000\000\000\000\000\016@\315\314\314\314\314\314\010@333333\007@\000\000\000\000\000\000\000@\270\036\205\353Q\270\362?\000\000\000\000\000\000\374?\315\314\314\314\314\314\000@\000\000\000\000\000\000\370?\315\314\314\314\314\314\002@333333\005@\232\231\231\231\231\231\003@ffffff\006@ffffff\n@\000\000\000\000\000\000\016@ffffff\n@ffffff\376?\270\036\205\353Q\270\362?\315\314\314\314\314\314\370?\315\314\314\314\314\314\010@\232\231\231\231\231\231\013@\232\231\231\231\231\231\001@\232\231\231\231\231\231\t@\232\231\231\231\231\231\013@\232\231\231\231\231\231\013@ffffff\020@\000\000\000\000\000\000\023@\000\000\000\000\000\000\374?ffffff\023@ffffff\376?ffffff\000@333333\017@\315\314\314\314\314\314\002@\232\231\231\231\231\231\005@\232\231\231\231\231\231\003@333333\005@ffffff\014@\232\231\231\231\231\231\003@\315\314\314\314\314\314\374?\315\314\314\314\314\314\370?\000\000\000\000\000\000\002@ffffff\006@\000\000\000\000\000\000\030@333333\005@\315\314\314\314\314\314\004@\000\000\000\000\000\000\023@\000\000\000\000\000\000\016@\000\000\000\000\000\000\023@ffffff\004@ffffff\010@333333\001@ffffff\020@333333\003@ffffff\010@\232\231\231\231\231\231\001@\315\314\314\314\314\314\004@\000\000\000\000\000\000\000@\000\000\000\000\000\000\024@\000\000\000\000\000\000\002@333333\003@\232\231\231\231\231\231\001@\315\314\314\314\314\314\010@\232\231\231\231\231\231\001@333333\005@ffffff\020@\315\314\314\314\314\314\002@\000\000\000\000\000\000\006@\000\000\000\000\000\000\006@ffffff\010@ffffff\006@\000\000\000\000\000\000\022@\000\000\000\000\000\000\016@\000\000\000\000\000\000\016@333333\005@\000\000\000\000\000\000\016@\232\231\231\231\231\231\003@\000\000\000\000\000\000\016@ffffff\006@\315\314\314\314\314\314\002@333333\001@333333\005@333333\005@333333\017@\000\000\000\000\000\000\020@\315\314\314\314\314\314\002@\232\231\231\231\231\231\013@\232\231\231\231\231\231\013@333333\005@333333\007@\000\000\000\000\000\000\006@333333\017@333333\007@\000\000\000\000\000\000\000@\232\231\231\231\231\231\013@ffffff\004@\315\314\314\314\314\314\000@\000\000\000\000\000\000\374?\232\231\231\231\231\231\013@ffffff\010@\232\231\231\231\231\231\t@\232\231\231\231\231\231\001@\315\314\314\314\314\314\002@ffffff\372?\232\231\231\231\231\231\001@333333\007@\315\314\314\314\314\314\004@ffffff\010@\000\000\000\000\000\000\370?ffffff\021@ffffff\376?ffffff\004@ffffff\004@\000\000\000\000\000\000\022@\232\231\231\231\231\231\003@\315\314\314\314\314\314\006@\000\000\000\000\000\000\370?333333\017@\315\314\314\314\314\314\364?\232\231\231\231\231\231\021@\315\314\314\314\314\314\010@\232\231\231\231\231\231\001@\315\314\314\314\314\314\010@333333\005@\000\000\000\000\000\000\016@ffffff\n@\232\231\231\231\231\231\001@ffffff\020@333333\013@333333\005@\000\000\000\000\000\000\002@ffffff\014@ffffff\020@\232\231\231\231\231\231\021@\315\314\314\314\314\314\002@\000\000\000\000\000\000\002@ffffff\006@\232\231\231\231\231\231\t@\000\000\000\000\000\000\002@ffffff\006@\232\231\231\231\231\231\t@333333\005@\315\314\314\314\314\314\010@333333\005@\315\314\314\314\314\314\002@\315\314\314\314\314\314\002@ffffff\n@ffffff\020@\000\000\000\000\000\000\002@\232\231\231\231\231\231\003@ffffff\004@ffffff\006@\232\231\231\231\231\231\013@ffffff\010@ffffff\006@ffffff\000@\315\314\314\314\314\314\370?333333\003@\315\314\314\314\314\314\002@\232\231\231\231\231\231\013@333333\017@\315\314\314\314\314\314\004@333333\001@\232\231\231\231\231\231\375?ffffff\004@ffffff\014@ffffff\376?333333\017@\315\314\314\314\314\314\002@\232\231\231\231\231\231\013@ffffff\006@\000\000\000\000\000\000\016@\315\314\314\314\314\314\370?ffffff\023@333333\005@\232\231\231\231\231\231\013@ffffff\n@\315\314\314\314\314\314\006@ffffff\006@\000\000\000\000\000\000\027@\000\000\000\000\000\000\374?\000\000\000\000\000\000\026@333333\007@\232\231\231\231\231\231\021@\000\000\000\000\000\000\027@\232\231\231\231\231\231\005@333333\013@\000\000\000\000\000\000\023@\315\314\314\314\314\314\010@333333\005@\315\314\314\314\314\314\010@\000\000\000\000\000\000\025@333333\005@\000\000\000\000\000\000\027@ffffff\376?333333\007@ffffff\000@ffffff\006@\315\314\314\314\314\314\006@333333\003@\315\314\314\314\314\314\004@\232\231\231\231\231\231\001@ffffff\376?\000\000\000\000\000\000\016@\315\314\314\314\314\314\010@\000\000\000\000\000\000\022@\000\000\000\000\000\000\006@\000\000\000\000\000\000\024@\315\314\314\314\314\314\006@\232\231\231\231\231\231\001@333333\373?\315\314\314\314\314\314\370?\000\000\000\000\000\000\370?\232\231\231\231\231\231\371?333333\373?333333\005@ffffff\372?ffffff\014@\315\314\314\314\314\314\004@333333\005@333333\005@333333\r@333333\003@333333\017@\232\231\231\231\231\231\013@ffffff\010@\315\314\314\314\314\314\002@ffffff\020@\232\231\231\231\231\231\003@ffffff\366?\232\231\231\231\231\231\001@\000\000\000\000\000\000\024@333333\373?"
      }
    }
  }
}
node {
  name: "tensors/component_2"
  op: "Const"
  device: "/device:CPU:0"
  attr {
    key: "_output_shapes"
    value {
      list {
        shape {
          dim {
            size: 739
          }
        }
      }
    }
  }
  attr {
    key: "dtype"
    value {
      type: DT_DOUBLE
    }
  }
  attr {
    key: "value"
    value {
      tensor {
        dtype: DT_DOUBLE
        tensor_shape {
          dim {
            size: 739
          }
        }
        tensor_content: "\232\231\231\231\231\231\022@\000\000\000\000\000\000\021@\232\231\231\231\231\231\005@\000\000\000\000\000\000\016@\315\314\314\314\314\314\010@333333\005@333333\001@\000\000\000\000\000\000 @\000\000\000\000\000\000\025@\315\314\314\314\314\314\010@\232\231\231\231\231\231\022@ffffff\000@\000\000\000\000\000\000\014@\232\231\231\231\231\231\022@333333\003@\000\000\000\000\000\000\021@ffffff\376?\000\000\000\000\000\000\027@\000\000\000\000\000\000\016@\000\000\000\000\000\000\025@333333\020@\000\000\000\000\000\000\016@\315\314\314\314\314\314\004@\000\000\000\000\000\000(@\232\231\231\231\231\231\013@\000\000\000\000\000\000\014@333333\r@\000\000\000\000\000\000%@\000\000\000\000\000\000\030@\000\000\000\000\000\000\023@ffffff\021@\000\000\000\000\000\000\021@\000\000\000\000\000\000\374?\000\000\000\000\000\000\010@\000\000\000\000\000\000\024@\232\231\231\231\231\231\t@\000\000\000\000\000\000\016@ffffff\006@\000\000\000\000\000\000\016@\315\314\314\314\314\314\004@\000\000\000\000\000\000\016@\000\000\000\000\000\000,@\232\231\231\231\231\231\t@\000\000\000\000\000\000\010@\232\231\231\231\231\231\t@\232\231\231\231\231\231\001@ffffff\000@333333\017@ffffff\014@\315\314\314\314\314\314\004@333333\r@ffffff\020@ffffff\004@\000\000\000\000\000\000\016@ffffff\n@ffffff\020@ffffff\n@333333\020@ffffff\n@ffffff\n@333333\r@\000\000\000\000\000\000\010@ffffff\010@ffffff\010@\000\000\000\000\000\000\014@\000\000\000\000\000\000\023@ffffff\021@\315\314\314\314\314\314\004@ffffff\010@\000\000\000\000\000\000\010@ffffff\006@333333\001@ffffff\n@ffffff\004@\000\000\000\000\000\000\022@\315\314\314\314\314\314\004@ffffff\023@\000\000\000\000\000\000\004@\000\000\000\000\000\000\016@ffffff\006@\232\231\231\231\231\231\013@\315\314\314\314\314\314\004@333333\013@ffffff\010@\000\000\000\000\000\000\032@ffffff\000@ffffff\006@\232\231\231\231\231\231\021@333333\003@ffffff\006@\000\000\000\000\000\000\022@\000\000\000\000\000\000\025@333333\017@\000\000\000\000\000\000\022@\000\000\000\000\000\000\010@ffffff\023@ffffff\020@333333\017@ffffff\020@\000\000\000\000\000\000\034@ffffff\006@\232\231\231\231\231\231\021@333333\r@\000\000\000\000\000\000\010@\232\231\231\231\231\231\022@333333\r@\315\314\314\314\314\314\374?\000\000\000\000\000\000\026@333333\020@\000\000\000\000\000\000 @ffffff\006@\232\231\231\231\231\231\001@\000\000\000\000\000\000\010@\315\314\314\314\314\314\010@\000\000\000\000\000\000\025@\232\231\231\231\231\231\021@\232\231\231\231\231\231\021@333333\r@\000\000\000\000\000\000\014@\315\314\314\314\314\314\004@\000\000\000\000\000\000\021@333333\017@ffffff\020@ffffff\004@ffffff\006@\000\000\000\000\000\000\034@333333\r@ffffff\021@\232\231\231\231\231\231\375?ffffff\006@\315\314\314\314\314\314\010@ffffff\000@\232\231\231\231\231\231\013@ffffff\006@ffffff\006@ffffff\020@ffffff\021@333333\r@\000\000\000\000\000\000\024@\232\231\231\231\231\231\001@\000\000\000\000\000\000\010@333333\r@\315\314\314\314\314\314\004@ffffff\000@\232\231\231\231\231\231\022@\000\000\000\000\000\000\032@\000\000\000\000\000\000\026@ffffff\004@333333\017@\000\000\000\000\000\000\027@\000\000\000\000\000\000\024@ffffff\006@\232\231\231\231\231\231\013@\232\231\231\231\231\231\022@ffffff\000@\000\000\000\000\000\000\021@ffffff\023@\000\000\000\000\000\000\030@ffffff\n@\000\000\000\000\000\000\027@\315\314\314\314\314\314\006@333333\r@333333\r@\232\231\231\231\231\231\005@ffffff\014@ffffff\014@333333\020@\232\231\231\231\231\231\013@\000\000\000\000\000\000\023@ffffff\010@333333\r@ffffff\n@333333\r@ffffff\021@ffffff\021@\000\000\000\000\000\000\016@\232\231\231\231\231\231\021@ffffff\023@ffffff\023@\000\000\000\000\000\000\021@\000\000\000\000\000\000\014@ffffff\006@333333\007@\000\000\000\000\000\000\024@\315\314\314\314\314\314\004@ffffff\023@ffffff\004@\000\000\000\000\000\000\030@333333\r@\000\000\000\000\000\000\025@\232\231\231\231\231\231\001@\232\231\231\231\231\231\022@\000\000\000\000\000\000\010@\232\231\231\231\231\231\013@ffffff\021@ffffff\n@\232\231\231\231\231\231\021@\000\000\000\000\000\000\014@333333\017@\315\314\314\314\314\314\010@\232\231\231\231\231\231\013@333333\r@ffffff\n@333333\017@\000\000\000\000\000\000\014@\232\231\231\231\231\231\022@ffffff\020@ffffff\021@333333\020@\000\000\000\000\000\000\022@ffffff\006@ffffff\000@\000\000\000\000\000\000\014@\000\000\000\000\000\000\004@\000\000\000\000\000\000\004@\232\231\231\231\231\231\013@\000\000\000\000\000\000\010@\232\231\231\231\231\231\001@333333\013@\232\231\231\231\231\231\005@\000\000\000\000\000\000\025@ffffff\020@ffffff\006@\232\231\231\231\231\231\021@333333\r@\232\231\231\231\231\231\013@\315\314\314\314\314\314\004@\232\231\231\231\231\231\013@333333\017@\232\231\231\231\231\231\022@\000\000\000\000\000\000\030@ffffff\006@\232\231\231\231\231\231\371?333333\001@\000\000\000\000\000\000\025@ffffff\010@\232\231\231\231\231\231\013@ffffff\000@\315\314\314\314\314\314\004@\000\000\000\000\000\000\034@\232\231\231\231\231\231\022@\000\000\000\000\000\000\023@333333\r@\232\231\231\231\231\231\021@\000\000\000\000\000\000\027@ffffff\006@\232\231\231\231\231\231\021@ffffff\020@\000\000\000\000\000\000\027@\232\231\231\231\231\231\013@\232\231\231\231\231\231\013@333333\r@\000\000\000\000\000\000\010@\000\000\000\000\000\000\014@ffffff\004@ffffff\010@\000\000\000\000\000\000\020@333333\367?\000\000\000\000\000\000\025@333333\001@\232\231\231\231\231\231\022@\232\231\231\231\231\231\021@\232\231\231\231\231\231\013@ffffff\000@333333\017@\232\231\231\231\231\231\375?\232\231\231\231\231\231\001@\000\000\000\000\000\000\022@\232\231\231\231\231\231\022@\315\314\314\314\314\314\000@\000\000\000\000\000\000\023@\000\000\000\000\000\000\014@\000\000\000\000\000\000\010@ffffff\023@ffffff\021@\000\000\000\000\000\000\021@ffffff\021@\315\314\314\314\314\314\010@333333\r@ffffff\006@\232\231\231\231\231\231\005@333333\r@\000\000\000\000\000\000\024@\000\000\000\000\000\000%@333333\005@\000\000\000\000\000\000\025@333333\001@\000\000\000\000\000\000\014@\232\231\231\231\231\231\001@\232\231\231\231\231\231\021@333333\r@\000\000\000\000\000\000\032@\232\231\231\231\231\231\375?ffffff\020@\000\000\000\000\000\000\030@ffffff\020@ffffff\000@\000\000\000\000\000\000\023@\232\231\231\231\231\231\t@ffffff\020@\232\231\231\231\231\231\001@\000\000\000\000\000\000\024@ffffff\n@\000\000\000\000\000\000+@\000\000\000\000\000\000\027@\000\000\000\000\000\000\016@\000\000\000\000\000\000\023@\000\000\000\000\000\000\021@ffffff\006@\000\000\000\000\000\000\016@\000\000\000\000\000\000\016@ffffff\n@\232\231\231\231\231\231\005@ffffff\020@\315\314\314\314\314\314\010@\315\314\314\314\314\314\010@\315\314\314\314\314\314\004@\232\231\231\231\231\231\021@ffffff\021@\315\314\314\314\314\314\004@333333\017@333333\017@ffffff\004@\000\000\000\000\000\000\024@ffffff\021@333333\017@\232\231\231\231\231\231\001@\000\000\000\000\000\000\016@ffffff\023@ffffff\006@\000\000\000\000\000\000\022@\000\000\000\000\000\000\034@333333\r@\000\000\000\000\000\000\027@\315\314\314\314\314\314\002@\000\000\000\000\000\000 @ffffff\010@ffffff\006@333333\020@ffffff\n@\000\000\000\000\000\000\024@333333\003@ffffff\376?\000\000\000\000\000\000\034@\232\231\231\231\231\231\005@\232\231\231\231\231\231\t@\000\000\000\000\000\000\021@\232\231\231\231\231\231\022@333333\r@\232\231\231\231\231\231\022@\000\000\000\000\000\000\021@ffffff\021@\000\000\000\000\000\000\023@\000\000\000\000\000\000%@\315\314\314\314\314\314\010@\000\000\000\000\000\000,@\232\231\231\231\231\231\022@\315\314\314\314\314\314\004@ffffff\010@ffffff\n@ffffff\023@\000\000\000\000\000\000+@\000\000\000\000\000\000\027@\232\231\231\231\231\231\022@\000\000\000\000\000\000\036@\000\000\000\000\000\000\021@333333\r@333333\020@\232\231\231\231\231\231\013@333333\007@\315\314\314\314\314\314\004@333333\007@\000\000\000\000\000\000\024@\000\000\000\000\000\000+@\000\000\000\000\000\000\034@333333\013@ffffff\023@333333\013@ffffff\020@\232\231\231\231\231\231\021@ffffff\020@\232\231\231\231\231\231\013@333333\017@\000\000\000\000\000\000\021@\000\000\000\000\000\000\010@ffffff\021@\232\231\231\231\231\231\022@\000\000\000\000\000\000\022@333333\017@\315\314\314\314\314\314\010@333333\017@\232\231\231\231\231\231\001@\000\000\000\000\000\000\023@333333\013@\315\314\314\314\314\314\010@ffffff\006@333333\r@333333\013@\315\314\314\314\314\314\010@\232\231\231\231\231\231\013@\232\231\231\231\231\231\013@ffffff\004@\000\000\000\000\000\000\023@\000\000\000\000\000\000\027@ffffff\006@\000\000\000\000\000\000\022@ffffff\010@ffffff\021@ffffff\020@\232\231\231\231\231\231\005@\315\314\314\314\314\314\004@\315\314\314\314\314\314\010@333333\020@\232\231\231\231\231\231\013@ffffff\023@ffffff\010@333333\r@\232\231\231\231\231\231\022@\232\231\231\231\231\231\001@ffffff\020@ffffff\006@\000\000\000\000\000\000\010@333333\017@333333\r@333333\r@\315\314\314\314\314\314\010@\232\231\231\231\231\231\013@\000\000\000\000\000\000\030@333333\r@ffffff\006@\315\314\314\314\314\314\002@\000\000\000\000\000\000\010@333333\013@\232\231\231\231\231\231\001@ffffff\021@333333\017@ffffff\021@333333\017@333333\r@\232\231\231\231\231\231\021@333333\r@\315\314\314\314\314\314\004@\315\314\314\314\314\314\010@\232\231\231\231\231\231\001@333333\r@\000\000\000\000\000\000\021@ffffff\020@ffffff\000@\000\000\000\000\000\000\023@\232\231\231\231\231\231\t@ffffff\020@\232\231\231\231\231\231\001@\000\000\000\000\000\000\024@ffffff\n@\000\000\000\000\000\000+@\000\000\000\000\000\000\027@\000\000\000\000\000\000\016@\000\000\000\000\000\000\023@\000\000\000\000\000\000\021@ffffff\006@\000\000\000\000\000\000\016@\000\000\000\000\000\000\016@ffffff\n@\232\231\231\231\231\231\005@ffffff\020@\315\314\314\314\314\314\010@\315\314\314\314\314\314\010@\315\314\314\314\314\314\004@\232\231\231\231\231\231\021@ffffff\021@\315\314\314\314\314\314\004@333333\017@333333\017@ffffff\004@\000\000\000\000\000\000\024@ffffff\021@333333\017@\232\231\231\231\231\231\001@\000\000\000\000\000\000\016@ffffff\023@ffffff\006@\000\000\000\000\000\000\022@\000\000\000\000\000\000\034@333333\r@\000\000\000\000\000\000\027@\315\314\314\314\314\314\002@\000\000\000\000\000\000 @ffffff\010@ffffff\006@333333\020@ffffff\n@\000\000\000\000\000\000\024@333333\003@ffffff\376?\000\000\000\000\000\000\034@\232\231\231\231\231\231\005@\232\231\231\231\231\231\t@\000\000\000\000\000\000\021@\232\231\231\231\231\231\022@333333\r@\232\231\231\231\231\231\022@\000\000\000\000\000\000\021@ffffff\021@\000\000\000\000\000\000\023@\000\000\000\000\000\000%@\315\314\314\314\314\314\010@\000\000\000\000\000\000,@\232\231\231\231\231\231\022@\315\314\314\314\314\314\004@ffffff\010@ffffff\n@ffffff\023@\000\000\000\000\000\000+@\000\000\000\000\000\000\027@\232\231\231\231\231\231\022@\000\000\000\000\000\000\036@\000\000\000\000\000\000\021@333333\r@333333\020@\232\231\231\231\231\231\013@333333\007@\315\314\314\314\314\314\004@333333\007@\000\000\000\000\000\000\024@\000\000\000\000\000\000+@\000\000\000\000\000\000\034@ffffff\010@ffffff\006@\232\231\231\231\231\231\021@\000\000\000\000\000\000\010@ffffff\006@ffffff\006@333333\003@ffffff\000@\000\000\000\000\000\000\027@\000\000\000\000\000\000\000@\000\000\000\000\000\000\024@\000\000\000\000\000\000\023@ffffff\004@\000\000\000\000\000\000\021@ffffff\014@333333\020@333333\r@\232\231\231\231\231\231\005@333333\020@\000\000\000\000\000\000\026@\000\000\000\000\000\000\034@ffffff\021@\232\231\231\231\231\231\013@333333\373?333333\r@\000\000\000\000\000\000\016@ffffff\000@\315\314\314\314\314\314\004@ffffff\000@333333\017@\315\314\314\314\314\314\010@\000\000\000\000\000\000\022@333333\003@ffffff\020@\315\314\314\314\314\314\010@\232\231\231\231\231\231\021@\000\000\000\000\000\000\016@ffffff\023@ffffff\376?ffffff\021@ffffff\020@\232\231\231\231\231\231\021@\000\000\000\000\000\000\010@\232\231\231\231\231\231\021@333333\r@333333\003@\000\000\000\000\000\000\021@\000\000\000\000\000\000\014@\000\000\000\000\000\000\014@\315\314\314\314\314\314\010@\232\231\231\231\231\231\013@333333\001@\315\314\314\314\314\314\004@\315\314\314\314\314\314\004@333333\r@\315\314\314\314\314\314\004@333333\020@\315\314\314\314\314\314\004@\232\231\231\231\231\231\013@\000\000\000\000\000\000\021@\000\000\000\000\000\000\022@333333\r@333333\r@ffffff\004@\000\000\000\000\000\000\004@\000\000\000\000\000\000\021@ffffff\006@ffffff\006@333333\r@ffffff\n@\000\000\000\000\000\000\014@ffffff\004@ffffff\n@ffffff\023@ffffff\006@333333\017@\232\231\231\231\231\231\022@\000\000\000\000\000\000\027@ffffff\006@\315\314\314\314\314\314\010@\000\000\000\000\000\000\010@\232\231\231\231\231\231\021@\000\000\000\000\000\000\021@\000\000\000\000\000\000\031@\232\231\231\231\231\231\021@ffffff\n@\000\000\000\000\000\000\016@\315\314\314\314\314\314\010@\000\000\000\000\000\000\036@\000\000\000\000\000\000\002@\000\000\000\000\000\000\024@333333\017@333333\017@333333\001@333333\020@333333\013@\000\000\000\000\000\000\036@ffffff\004@\000\000\000\000\000\000%@\232\231\231\231\231\231\001@\000\000\000\000\000\000\010@\232\231\231\231\231\231\021@\000\000\000\000\000\000\010@333333\r@\315\314\314\314\314\314\004@333333\007@\232\231\231\231\231\231\021@333333\003@\315\314\314\314\314\314\006@333333\r@ffffff\021@\232\231\231\231\231\231\005@333333\003@\232\231\231\231\231\231\001@\000\000\000\000\000\000\021@ffffff\021@\232\231\231\231\231\231\013@\000\000\000\000\000\000\010@ffffff\021@\232\231\231\231\231\231\013@\000\000\000\000\000\000\010@333333\r@\000\000\000\000\000\000\010@333333\r@\000\000\000\000\000\000\021@\000\000\000\000\000\000\021@333333\007@333333\003@ffffff\021@333333\020@333333\017@\232\231\231\231\231\231\013@ffffff\006@\315\314\314\314\314\314\010@\232\231\231\231\231\231\013@\000\000\000\000\000\000\023@\000\000\000\000\000\000\034@ffffff\020@\000\000\000\000\000\000\021@ffffff\006@ffffff\004@\000\000\000\000\000\000\016@\000\000\000\000\000\000\022@\000\000\000\000\000\000\025@333333\017@\232\231\231\231\231\231\005@\000\000\000\000\000\000\024@ffffff\004@\000\000\000\000\000\000\021@ffffff\006@\232\231\231\231\231\231\013@\315\314\314\314\314\314\004@\000\000\000\000\000\000\034@\000\000\000\000\000\000\000@333333\r@ffffff\006@333333\007@333333\013@\232\231\231\231\231\231\013@\000\000\000\000\000\000\374?\000\000\000\000\000\000\027@\315\314\314\314\314\314\374?ffffff\n@\232\231\231\231\231\231\001@\000\000\000\000\000\000\374?ffffff\014@\315\314\314\314\314\314\006@ffffff\000@\000\000\000\000\000\000\010@333333\r@\000\000\000\000\000\000\010@\232\231\231\231\231\231\375?333333\r@\000\000\000\000\000\000\374?\000\000\000\000\000\000\024@ffffff\n@\000\000\000\000\000\000\023@\232\231\231\231\231\231\013@333333\013@ffffff\020@\000\000\000\000\000\000\016@\232\231\231\231\231\231\021@\000\000\000\000\000\000\024@\315\314\314\314\314\314\004@\000\000\000\000\000\000\010@333333\001@\000\000\000\000\000\000\014@ffffff\376?333333\013@\232\231\231\231\231\231\021@\000\000\000\000\000\000\030@\000\000\000\000\000\000\034@\000\000\000\000\000\000\036@\000\000\000\000\000\000\032@\000\000\000\000\000\000\030@333333\r@\000\000\000\000\000\000\031@\232\231\231\231\231\231\005@\000\000\000\000\000\000\016@333333\r@333333\r@333333\005@ffffff\020@ffffff\004@ffffff\006@\315\314\314\314\314\314\010@\000\000\000\000\000\000\021@333333\003@333333\020@\000\000\000\000\000\000\"@\232\231\231\231\231\231\021@ffffff\376?\000\000\000\000\000\000\030@"
      }
    }
  }
}
node {
  name: "tensors/component_3"
  op: "Const"
  device: "/device:CPU:0"
  attr {
    key: "_output_shapes"
    value {
      list {
        shape {
          dim {
            size: 739
          }
        }
      }
    }
  }
  attr {
    key: "dtype"
    value {
      type: DT_DOUBLE
    }
  }
  attr {
    key: "value"
    value {
      tensor {
        dtype: DT_DOUBLE
        tensor_shape {
          dim {
            size: 739
          }
        }
        tensor_content: "ffffff\000@333333\377?ffffff\376?ffffff\376?ffffff\376?ffffff\376?ffffff\000@\000\000\000\000\000\000\006@\000\000\000\000\000\000\002@ffffff\376?ffffff\000@\315\314\314\314\314\314\000@ffffff\376?ffffff\000@333333\377?333333\377?\232\231\231\231\231\231\001@ffffff\002@ffffff\376?\000\000\000\000\000\000\002@\217\302\365(\\\217\376?ffffff\376?ffffff\376?\000\000\000\000\000\000\016@ffffff\376?ffffff\376?ffffff\376?\000\000\000\000\000\000\n@\315\314\314\314\314\314\002@\315\314\314\314\314\314\000@\000\000\000\000\000\000\000@333333\377?ffffff\002@ffffff\376?\232\231\231\231\231\231\001@ffffff\376?ffffff\376?ffffff\376?ffffff\376?ffffff\376?ffffff\376?\000\000\000\000\000\000\022@ffffff\376?ffffff\376?ffffff\376?\000\000\000\000\000\000\000@\315\314\314\314\314\314\000@ffffff\376?ffffff\376?ffffff\376?ffffff\376?333333\377?ffffff\376?ffffff\376?ffffff\376?333333\377?ffffff\376?\217\302\365(\\\217\376?ffffff\376?ffffff\376?ffffff\376?ffffff\376?ffffff\376?ffffff\376?ffffff\376?\315\314\314\314\314\314\000@\000\000\000\000\000\000\000@ffffff\376?ffffff\376?ffffff\376?ffffff\376?ffffff\000@ffffff\376?ffffff\376?ffffff\000@ffffff\376?\315\314\314\314\314\314\000@ffffff\376?ffffff\376?ffffff\376?ffffff\376?ffffff\376?ffffff\376?ffffff\376?\000\000\000\000\000\000\004@\315\314\314\314\314\314\000@ffffff\376?\000\000\000\000\000\000\000@333333\377?ffffff\376?ffffff\000@\000\000\000\000\000\000\002@ffffff\376?ffffff\000@ffffff\376?\315\314\314\314\314\314\000@333333\377?ffffff\376?333333\377?ffffff\004@ffffff\376?\000\000\000\000\000\000\000@ffffff\376?ffffff\376?ffffff\000@ffffff\376?\000\000\000\000\000\000\002@\000\000\000\000\000\000\002@\217\302\365(\\\217\376?\000\000\000\000\000\000\006@ffffff\376?\000\000\000\000\000\000\000@ffffff\376?ffffff\376?\000\000\000\000\000\000\002@\000\000\000\000\000\000\000@\000\000\000\000\000\000\000@ffffff\376?ffffff\376?ffffff\376?333333\377?ffffff\376?333333\377?ffffff\376?ffffff\376?ffffff\004@ffffff\376?\000\000\000\000\000\000\000@\000\000\000\000\000\000\002@ffffff\376?ffffff\376?\315\314\314\314\314\314\000@ffffff\376?ffffff\376?ffffff\376?333333\377?\000\000\000\000\000\000\000@ffffff\376?\232\231\231\231\231\231\001@\000\000\000\000\000\000\000@ffffff\376?ffffff\376?ffffff\376?\315\314\314\314\314\314\000@ffffff\000@\000\000\000\000\000\000\004@\000\000\000\000\000\000\002@ffffff\376?ffffff\376?ffffff\002@\232\231\231\231\231\231\001@ffffff\376?ffffff\376?ffffff\000@\315\314\314\314\314\314\000@333333\377?\315\314\314\314\314\314\000@\315\314\314\314\314\314\002@ffffff\376?ffffff\002@ffffff\376?ffffff\376?ffffff\376?ffffff\376?ffffff\376?ffffff\376?\217\302\365(\\\217\376?ffffff\376?\315\314\314\314\314\314\000@ffffff\376?ffffff\376?ffffff\376?ffffff\376?\000\000\000\000\000\000\000@\000\000\000\000\000\000\000@ffffff\376?\000\000\000\000\000\000\000@\315\314\314\314\314\314\000@\315\314\314\314\314\314\000@333333\377?ffffff\376?ffffff\376?ffffff\376?\232\231\231\231\231\231\001@ffffff\376?\315\314\314\314\314\314\000@ffffff\376?\315\314\314\314\314\314\002@ffffff\376?\000\000\000\000\000\000\002@\000\000\000\000\000\000\000@ffffff\000@ffffff\376?ffffff\376?\000\000\000\000\000\000\000@ffffff\376?\000\000\000\000\000\000\000@ffffff\376?ffffff\376?ffffff\376?ffffff\376?ffffff\376?ffffff\376?ffffff\376?ffffff\376?ffffff\000@333333\377?\000\000\000\000\000\000\000@\217\302\365(\\\217\376?ffffff\000@ffffff\376?\315\314\314\314\314\314\000@ffffff\376?ffffff\376?ffffff\376?ffffff\376?ffffff\376?\000\000\000\000\000\000\000@ffffff\376?ffffff\376?\000\000\000\000\000\000\002@333333\377?ffffff\376?\000\000\000\000\000\000\000@ffffff\376?ffffff\376?ffffff\376?ffffff\376?ffffff\376?ffffff\000@\315\314\314\314\314\314\002@ffffff\376?\000\000\000\000\000\000\004@ffffff\000@\000\000\000\000\000\000\002@ffffff\376?ffffff\376?\315\314\314\314\314\314\000@ffffff\376?ffffff\004@ffffff\000@\315\314\314\314\314\314\000@ffffff\376?\000\000\000\000\000\000\000@ffffff\002@ffffff\376?\000\000\000\000\000\000\000@333333\377?ffffff\002@ffffff\376?ffffff\376?ffffff\376?ffffff\376?ffffff\376?ffffff\376?ffffff\376?ffffff\376?\000\000\000\000\000\000\006@\000\000\000\000\000\000\002@ffffff\000@ffffff\000@\000\000\000\000\000\000\000@ffffff\376?\315\314\314\314\314\314\000@ffffff\376?\000\000\000\000\000\000\002@\000\000\000\000\000\000\000@ffffff\000@ffffff\000@ffffff\000@\315\314\314\314\314\314\000@ffffff\376?ffffff\376?\315\314\314\314\314\314\000@\000\000\000\000\000\000\000@333333\377?\000\000\000\000\000\000\000@ffffff\376?ffffff\376?ffffff\376?ffffff\376?ffffff\376?\232\231\231\231\231\231\001@\000\000\000\000\000\000\n@ffffff\376?\000\000\000\000\000\000\002@ffffff\000@ffffff\376?\000\000\000\000\000\000\000@\000\000\000\000\000\000\000@ffffff\376?\000\000\000\000\000\000\004@\000\000\000\000\000\000\002@333333\377?\315\314\314\314\314\314\002@333333\377?\315\314\314\314\314\314\000@\315\314\314\314\314\314\000@ffffff\376?333333\377?\000\000\000\000\000\000\000@\232\231\231\231\231\231\001@ffffff\376?\000\000\000\000\000\000\020@ffffff\002@ffffff\376?\315\314\314\314\314\314\000@333333\377?ffffff\376?ffffff\376?ffffff\376?ffffff\376?ffffff\376?333333\377?ffffff\376?ffffff\376?ffffff\376?\000\000\000\000\000\000\000@\000\000\000\000\000\000\000@ffffff\376?ffffff\376?ffffff\376?ffffff\376?\232\231\231\231\231\231\001@\000\000\000\000\000\000\000@ffffff\376?\000\000\000\000\000\000\000@ffffff\376?\315\314\314\314\314\314\000@ffffff\376?ffffff\000@ffffff\004@ffffff\376?ffffff\002@333333\377?\000\000\000\000\000\000\006@ffffff\376?ffffff\376?\217\302\365(\\\217\376?ffffff\376?\232\231\231\231\231\231\001@333333\377?\232\231\231\231\231\231\001@ffffff\004@ffffff\376?ffffff\376?333333\377?ffffff\000@ffffff\376?ffffff\000@333333\377?\000\000\000\000\000\000\000@\315\314\314\314\314\314\000@\000\000\000\000\000\000\n@ffffff\376?\000\000\000\000\000\000\022@ffffff\000@ffffff\376?ffffff\376?ffffff\376?\315\314\314\314\314\314\000@\000\000\000\000\000\000\020@ffffff\002@ffffff\000@333333\005@333333\377?ffffff\376?\217\302\365(\\\217\376?ffffff\376?ffffff\376?ffffff\376?ffffff\376?\232\231\231\231\231\231\001@\000\000\000\000\000\000\020@ffffff\004@ffffff\376?\315\314\314\314\314\314\000@ffffff\376?333333\377?\000\000\000\000\000\000\000@333333\377?ffffff\376?ffffff\376?333333\377?ffffff\376?\000\000\000\000\000\000\000@ffffff\000@ffffff\000@ffffff\376?ffffff\376?ffffff\376?\000\000\000\000\000\000\000@\315\314\314\314\314\314\000@ffffff\376?ffffff\376?ffffff\376?ffffff\376?ffffff\376?ffffff\376?ffffff\376?ffffff\376?ffffff\376?\315\314\314\314\314\314\000@ffffff\002@ffffff\376?ffffff\000@ffffff\376?\000\000\000\000\000\000\000@333333\377?ffffff\376?ffffff\376?ffffff\376?\217\302\365(\\\217\376?ffffff\376?\315\314\314\314\314\314\000@ffffff\376?ffffff\376?ffffff\000@\000\000\000\000\000\000\000@333333\377?ffffff\376?ffffff\376?ffffff\376?ffffff\376?ffffff\376?ffffff\376?ffffff\376?\315\314\314\314\314\314\002@ffffff\376?ffffff\376?333333\377?ffffff\376?ffffff\376?\000\000\000\000\000\000\000@\000\000\000\000\000\000\000@ffffff\376?\000\000\000\000\000\000\000@ffffff\376?ffffff\376?\000\000\000\000\000\000\000@ffffff\376?ffffff\376?ffffff\376?\000\000\000\000\000\000\000@ffffff\376?333333\377?333333\377?\315\314\314\314\314\314\000@\315\314\314\314\314\314\000@ffffff\376?333333\377?\000\000\000\000\000\000\000@\232\231\231\231\231\231\001@ffffff\376?\000\000\000\000\000\000\020@ffffff\002@ffffff\376?\315\314\314\314\314\314\000@333333\377?ffffff\376?ffffff\376?ffffff\376?ffffff\376?ffffff\376?333333\377?ffffff\376?ffffff\376?ffffff\376?\000\000\000\000\000\000\000@\000\000\000\000\000\000\000@ffffff\376?ffffff\376?ffffff\376?ffffff\376?\232\231\231\231\231\231\001@\000\000\000\000\000\000\000@ffffff\376?\000\000\000\000\000\000\000@ffffff\376?\315\314\314\314\314\314\000@ffffff\376?ffffff\000@ffffff\004@ffffff\376?ffffff\002@333333\377?\000\000\000\000\000\000\006@ffffff\376?ffffff\376?\217\302\365(\\\217\376?ffffff\376?\232\231\231\231\231\231\001@333333\377?\232\231\231\231\231\231\001@ffffff\004@ffffff\376?ffffff\376?333333\377?ffffff\000@ffffff\376?ffffff\000@333333\377?\000\000\000\000\000\000\000@\315\314\314\314\314\314\000@\000\000\000\000\000\000\n@ffffff\376?\000\000\000\000\000\000\022@ffffff\000@ffffff\376?ffffff\376?ffffff\376?\315\314\314\314\314\314\000@\000\000\000\000\000\000\020@ffffff\002@ffffff\000@333333\005@333333\377?ffffff\376?\217\302\365(\\\217\376?ffffff\376?ffffff\376?ffffff\376?ffffff\376?\232\231\231\231\231\231\001@\000\000\000\000\000\000\020@ffffff\004@ffffff\376?ffffff\376?\000\000\000\000\000\000\000@ffffff\376?ffffff\376?ffffff\376?333333\377?\315\314\314\314\314\314\000@ffffff\002@\315\314\314\314\314\314\000@\232\231\231\231\231\231\001@\315\314\314\314\314\314\000@ffffff\376?333333\377?ffffff\376?\217\302\365(\\\217\376?ffffff\376?ffffff\376?\217\302\365(\\\217\376?\000\000\000\000\000\000\002@ffffff\004@\000\000\000\000\000\000\000@ffffff\376?\315\314\314\314\314\314\002@ffffff\376?ffffff\376?\315\314\314\314\314\314\000@ffffff\376?\315\314\314\314\314\314\000@ffffff\376?ffffff\376?ffffff\000@333333\377?333333\377?ffffff\376?\000\000\000\000\000\000\000@ffffff\376?\315\314\314\314\314\314\000@\232\231\231\231\231\231\001@\000\000\000\000\000\000\000@333333\377?\000\000\000\000\000\000\000@ffffff\376?\000\000\000\000\000\000\000@ffffff\376?333333\377?333333\377?ffffff\376?ffffff\376?ffffff\376?ffffff\376?ffffff\000@ffffff\376?ffffff\376?ffffff\376?ffffff\376?\217\302\365(\\\217\376?ffffff\376?ffffff\376?333333\377?ffffff\000@ffffff\376?ffffff\376?ffffff\376?ffffff\376?333333\377?ffffff\376?ffffff\376?ffffff\376?ffffff\376?ffffff\376?ffffff\376?ffffff\376?\315\314\314\314\314\314\000@ffffff\376?ffffff\376?ffffff\000@ffffff\002@ffffff\376?ffffff\376?ffffff\376?\000\000\000\000\000\000\000@333333\377?\232\231\231\231\231\231\003@\000\000\000\000\000\000\000@ffffff\376?ffffff\376?ffffff\376?333333\005@\000\000\000\000\000\000\000@\232\231\231\231\231\231\001@ffffff\376?ffffff\376?ffffff\000@\217\302\365(\\\217\376?ffffff\376?333333\005@ffffff\376?\000\000\000\000\000\000\n@\000\000\000\000\000\000\000@ffffff\376?\000\000\000\000\000\000\000@ffffff\376?ffffff\376?ffffff\376?ffffff\376?\000\000\000\000\000\000\000@333333\377?ffffff\376?ffffff\376?\000\000\000\000\000\000\000@ffffff\376?333333\377?\000\000\000\000\000\000\000@333333\377?\000\000\000\000\000\000\000@ffffff\376?ffffff\376?\000\000\000\000\000\000\000@ffffff\376?ffffff\376?ffffff\376?ffffff\376?ffffff\376?333333\377?333333\377?ffffff\376?333333\377?\000\000\000\000\000\000\000@\217\302\365(\\\217\376?ffffff\376?ffffff\376?ffffff\376?ffffff\376?ffffff\376?\315\314\314\314\314\314\000@ffffff\004@333333\377?333333\377?ffffff\376?ffffff\376?ffffff\376?ffffff\000@\000\000\000\000\000\000\002@ffffff\376?ffffff\376?\232\231\231\231\231\231\001@ffffff\376?333333\377?ffffff\376?ffffff\376?ffffff\376?ffffff\004@\315\314\314\314\314\314\000@ffffff\376?ffffff\376?ffffff\376?ffffff\376?ffffff\376?ffffff\002@ffffff\002@\000\000\000\000\000\000\002@ffffff\376?\000\000\000\000\000\000\000@ffffff\002@ffffff\376?ffffff\376?\315\314\314\314\314\314\000@ffffff\376?ffffff\376?ffffff\376?\000\000\000\000\000\000\002@ffffff\376?ffffff\002@\232\231\231\231\231\231\001@ffffff\376?\315\314\314\314\314\314\000@ffffff\376?ffffff\376?333333\377?ffffff\376?\000\000\000\000\000\000\000@\232\231\231\231\231\231\001@ffffff\376?ffffff\376?ffffff\000@ffffff\376?\232\231\231\231\231\231\001@ffffff\376?\000\000\000\000\000\000\000@\315\314\314\314\314\314\002@ffffff\004@333333\005@\000\000\000\000\000\000\004@\315\314\314\314\314\314\002@ffffff\376?\232\231\231\231\231\231\003@ffffff\376?ffffff\376?ffffff\376?ffffff\376?ffffff\376?333333\377?ffffff\376?ffffff\376?ffffff\376?333333\377?333333\377?\217\302\365(\\\217\376?\315\314\314\314\314\314\006@\000\000\000\000\000\000\000@\232\231\231\231\231\231\001@\315\314\314\314\314\314\002@"
      }
    }
  }
}
node {
  name: "tensors/component_4"
  op: "Const"
  device: "/device:CPU:0"
  attr {
    key: "_output_shapes"
    value {
      list {
        shape {
          dim {
            size: 739
          }
        }
      }
    }
  }
  attr {
    key: "dtype"
    value {
      type: DT_DOUBLE
    }
  }
  attr {
    key: "value"
    value {
      tensor {
        dtype: DT_DOUBLE
        tensor_shape {
          dim {
            size: 739
          }
        }
        tensor_content: "333333\377?\315\314\314\314\314\314\000@333333\013@ffffff\002@\315\314\314\314\314\314\006@\232\231\231\231\231\231\013@333333\017@\232\231\231\231\231\231\365?ffffff\372?\315\314\314\314\314\314\006@333333\377?\315\314\314\314\314\314\020@\232\231\231\231\231\231\003@333333\377?\232\231\231\231\231\231\r@\315\314\314\314\314\314\000@\000\000\000\000\000\000\023@\315\314\314\314\314\314\370?ffffff\002@ffffff\372?q=\n\327\243p\001@ffffff\002@\000\000\000\000\000\000\014@333333\363?\000\000\000\000\000\000\004@\232\231\231\231\231\231\003@\315\314\314\314\314\314\002@)\\\217\302\365(\364?{\024\256G\341z\370?ffffff\376?ffffff\000@\315\314\314\314\314\314\000@\000\000\000\000\000\000\026@\000\000\000\000\000\000\010@\000\000\000\000\000\000\374?\000\000\000\000\000\000\006@ffffff\002@\315\314\314\314\314\314\n@ffffff\002@\000\000\000\000\000\000\014@ffffff\002@q=\n\327\243p\361?\000\000\000\000\000\000\006@\000\000\000\000\000\000\010@\000\000\000\000\000\000\006@333333\017@\315\314\314\314\314\314\020@\000\000\000\000\000\000\002@333333\003@\000\000\000\000\000\000\014@\315\314\314\314\314\314\002@333333\001@ffffff\014@ffffff\002@333333\005@333333\001@333333\005@q=\n\327\243p\001@333333\005@333333\005@\315\314\314\314\314\314\002@\000\000\000\000\000\000\010@333333\007@333333\007@\232\231\231\231\231\231\003@ffffff\376?ffffff\000@\000\000\000\000\000\000\014@333333\007@\232\231\231\231\231\231\007@\315\314\314\314\314\314\n@333333\017@333333\005@ffffff\014@\000\000\000\000\000\000\000@\000\000\000\000\000\000\014@\315\314\314\314\314\314\374?333333\r@ffffff\002@\315\314\314\314\314\314\n@\000\000\000\000\000\000\004@\000\000\000\000\000\000\014@ffffff\004@333333\007@333333\367?\315\314\314\314\314\314\020@\315\314\314\314\314\314\n@\000\000\000\000\000\000\000@\232\231\231\231\231\231\r@\315\314\314\314\314\314\n@\000\000\000\000\000\000\000@ffffff\372?\000\000\000\000\000\000\002@\000\000\000\000\000\000\000@\000\000\000\000\000\000\010@\315\314\314\314\314\314\374?333333\001@\000\000\000\000\000\000\002@333333\001@\n\327\243p=\n\367?\315\314\314\314\314\314\n@\000\000\000\000\000\000\000@\315\314\314\314\314\314\002@\000\000\000\000\000\000\010@333333\377?\315\314\314\314\314\314\002@\000\000\000\000\000\000\025@\232\231\231\231\231\231\371?q=\n\327\243p\001@\232\231\231\231\231\231\365?\315\314\314\314\314\314\n@333333\017@\000\000\000\000\000\000\010@\315\314\314\314\314\314\006@ffffff\372?\000\000\000\000\000\000\000@\000\000\000\000\000\000\000@\315\314\314\314\314\314\002@\232\231\231\231\231\231\003@\000\000\000\000\000\000\014@\315\314\314\314\314\314\000@\000\000\000\000\000\000\002@333333\001@ffffff\014@\315\314\314\314\314\314\n@\n\327\243p=\n\367?\315\314\314\314\314\314\002@ffffff\000@\000\000\000\000\000\000\024@\315\314\314\314\314\314\n@\315\314\314\314\314\314\006@\315\314\314\314\314\314\020@\000\000\000\000\000\000\004@\315\314\314\314\314\314\n@\315\314\314\314\314\314\n@333333\001@ffffff\000@\315\314\314\314\314\314\002@\000\000\000\000\000\000\374?333333\017@\000\000\000\000\000\000\010@\315\314\314\314\314\314\002@\000\000\000\000\000\000\014@\315\314\314\314\314\314\020@333333\377?333333\367?\232\231\231\231\231\231\371?ffffff\014@\000\000\000\000\000\000\002@\315\314\314\314\314\314\370?\000\000\000\000\000\000\374?\315\314\314\314\314\314\n@\000\000\000\000\000\000\004@333333\377?\315\314\314\314\314\314\020@\315\314\314\314\314\314\000@\315\314\314\314\314\314\374?{\024\256G\341z\370?333333\005@\315\314\314\314\314\314\370?\000\000\000\000\000\000\n@\315\314\314\314\314\314\002@\315\314\314\314\314\314\002@333333\013@333333\003@333333\003@q=\n\327\243p\001@\000\000\000\000\000\000\004@ffffff\376?333333\007@\315\314\314\314\314\314\002@333333\005@\315\314\314\314\314\314\002@ffffff\000@ffffff\000@ffffff\002@\000\000\000\000\000\000\000@\315\314\314\314\314\314\374?\315\314\314\314\314\314\374?\315\314\314\314\314\314\000@\232\231\231\231\231\231\003@\315\314\314\314\314\314\n@333333\t@\000\000\000\000\000\000\374?\000\000\000\000\000\000\014@\315\314\314\314\314\314\374?ffffff\014@{\024\256G\341z\370?\315\314\314\314\314\314\002@ffffff\372?333333\017@333333\377?\232\231\231\231\231\231\007@\000\000\000\000\000\000\004@ffffff\000@333333\005@\000\000\000\000\000\000\000@\232\231\231\231\231\231\003@\000\000\000\000\000\000\002@\315\314\314\314\314\314\006@\000\000\000\000\000\000\004@\315\314\314\314\314\314\002@333333\005@\000\000\000\000\000\000\002@\232\231\231\231\231\231\003@333333\377?333333\001@ffffff\000@q=\n\327\243p\001@\000\000\000\000\000\000\000@\315\314\314\314\314\314\n@\315\314\314\314\314\314\020@\232\231\231\231\231\231\003@333333\r@333333\r@\000\000\000\000\000\000\004@\000\000\000\000\000\000\010@333333\017@ffffff\004@333333\013@ffffff\372?333333\001@\315\314\314\314\314\314\n@\000\000\000\000\000\000\000@\315\314\314\314\314\314\002@\000\000\000\000\000\000\004@\000\000\000\000\000\000\014@\000\000\000\000\000\000\004@\000\000\000\000\000\000\002@333333\377?{\024\256G\341z\370?\315\314\314\314\314\314\n@\000\000\000\000\000\000\031@333333\017@ffffff\372?333333\007@\000\000\000\000\000\000\004@\315\314\314\314\314\314\020@\000\000\000\000\000\000\014@\n\327\243p=\n\367?333333\377?ffffff\376?\315\314\314\314\314\314\002@\000\000\000\000\000\000\000@\315\314\314\314\314\314\370?\315\314\314\314\314\314\n@\000\000\000\000\000\000\000@333333\001@\315\314\314\314\314\314\370?\000\000\000\000\000\000\004@\000\000\000\000\000\000\004@\315\314\314\314\314\314\002@\000\000\000\000\000\000\010@\232\231\231\231\231\231\003@ffffff\014@333333\007@\232\231\231\231\231\231\001@\000\000\000\000\000\000\036@ffffff\372?333333\017@333333\377?\000\000\000\000\000\000\000@\000\000\000\000\000\000\004@\315\314\314\314\314\314\020@\000\000\000\000\000\000\002@\000\000\000\000\000\000\024@333333\017@\000\000\000\000\000\000\000@333333\377?\000\000\000\000\000\000\020@ffffff\376?\232\231\231\231\231\231\003@\000\000\000\000\000\000\010@\315\314\314\314\314\314\374?ffffff\000@\315\314\314\314\314\314\000@ffffff\000@\315\314\314\314\314\314\006@\315\314\314\314\314\314\002@\315\314\314\314\314\314\n@333333\013@\315\314\314\314\314\314\002@\000\000\000\000\000\000\374?)\\\217\302\365(\364?\232\231\231\231\231\231\013@ffffff\372?333333\017@\232\231\231\231\231\231\003@333333\017@\000\000\000\000\000\000\000@\315\314\314\314\314\314\002@333333\367?\000\000\000\000\000\000\024@333333\001@{\024\256G\341z\370?333333\001@\315\314\314\314\314\314\020@ffffff\376?\000\000\000\000\000\000\006@333333\001@333333\017@\000\000\000\000\000\000\374?333333\005@\354Q\270\036\205\353\361?\315\314\314\314\314\314\370?ffffff\002@ffffff\376?\315\314\314\314\314\314\000@\315\314\314\314\314\314\n@ffffff\002@ffffff\002@333333\005@333333\013@333333\001@\315\314\314\314\314\314\006@\315\314\314\314\314\314\006@\000\000\000\000\000\000\014@\000\000\000\000\000\000\000@ffffff\000@\000\000\000\000\000\000\014@\000\000\000\000\000\000\002@\000\000\000\000\000\000\002@ffffff\014@\000\000\000\000\000\000\374?ffffff\000@\000\000\000\000\000\000\002@333333\017@ffffff\002@\315\314\314\314\314\314\374?\315\314\314\314\314\314\n@\000\000\000\000\000\000\000@\n\327\243p=\n\367?\315\314\314\314\314\314\002@\315\314\314\314\314\314\370?ffffff\016@\232\231\231\231\231\231\365?333333\007@\315\314\314\314\314\314\n@q=\n\327\243p\001@333333\005@\000\000\000\000\000\000\374?\232\231\231\231\231\231\r@\000\000\000\000\000\000\023@\n\327\243p=\n\367?333333\013@\000\000\000\000\000\000\006@\315\314\314\314\314\314\000@333333\377?\315\314\314\314\314\314\002@333333\377?\315\314\314\314\314\314\000@ffffff\000@ffffff\376?)\\\217\302\365(\364?\315\314\314\314\314\314\006@q=\n\327\243p\361?333333\377?\000\000\000\000\000\000\014@333333\007@333333\005@\315\314\314\314\314\314\374?\354Q\270\036\205\353\361?\315\314\314\314\314\314\370?333333\377?ffffff\366?\315\314\314\314\314\314\000@\315\314\314\314\314\314\002@q=\n\327\243p\001@\000\000\000\000\000\000\004@333333\t@\000\000\000\000\000\000\014@333333\t@\000\000\000\000\000\000\374?\354Q\270\036\205\353\361?\n\327\243p=\n\367?ffffff\004@\315\314\314\314\314\314\374?ffffff\004@333333\001@\000\000\000\000\000\000\000@333333\001@\000\000\000\000\000\000\004@\000\000\000\000\000\000\002@\315\314\314\314\314\314\000@\000\000\000\000\000\000\010@ffffff\000@333333\377?\000\000\000\000\000\000\000@\000\000\000\000\000\000\002@\315\314\314\314\314\314\006@\000\000\000\000\000\000\002@333333\017@ffffff\376?ffffff\004@\315\314\314\314\314\314\006@\315\314\314\314\314\314\n@\315\314\314\314\314\314\002@ffffff\004@\315\314\314\314\314\314\006@\000\000\000\000\000\000\004@\000\000\000\000\000\000\004@ffffff\014@ffffff\376?\315\314\314\314\314\314\370?\315\314\314\314\314\314\n@\000\000\000\000\000\000\000@333333\007@ffffff\000@333333\001@333333\013@\000\000\000\000\000\000\014@\315\314\314\314\314\314\006@q=\n\327\243p\001@\000\000\000\000\000\000\004@\315\314\314\314\314\314\374?333333\007@\315\314\314\314\314\314\002@333333\377?333333\017@333333\001@\315\314\314\314\314\314\n@\000\000\000\000\000\000\010@\000\000\000\000\000\000\002@\315\314\314\314\314\314\002@\315\314\314\314\314\314\002@\315\314\314\314\314\314\006@\000\000\000\000\000\000\004@{\024\256G\341z\370?\315\314\314\314\314\314\002@\315\314\314\314\314\314\n@ffffff\016@\000\000\000\000\000\000\010@ffffff\004@333333\017@ffffff\000@\000\000\000\000\000\000\002@ffffff\000@\000\000\000\000\000\000\002@\315\314\314\314\314\314\002@\000\000\000\000\000\000\000@\315\314\314\314\314\314\002@\000\000\000\000\000\000\014@\315\314\314\314\314\314\006@333333\017@\315\314\314\314\314\314\002@\315\314\314\314\314\314\000@333333\001@\315\314\314\314\314\314\020@ffffff\376?\000\000\000\000\000\000\006@333333\001@333333\017@\000\000\000\000\000\000\374?333333\005@\354Q\270\036\205\353\361?\315\314\314\314\314\314\370?ffffff\002@ffffff\376?\315\314\314\314\314\314\000@\315\314\314\314\314\314\n@ffffff\002@ffffff\002@333333\005@333333\013@333333\001@\315\314\314\314\314\314\006@\315\314\314\314\314\314\006@\000\000\000\000\000\000\014@\000\000\000\000\000\000\000@ffffff\000@\000\000\000\000\000\000\014@\000\000\000\000\000\000\002@\000\000\000\000\000\000\002@ffffff\014@\000\000\000\000\000\000\374?ffffff\000@\000\000\000\000\000\000\002@333333\017@ffffff\002@\315\314\314\314\314\314\374?\315\314\314\314\314\314\n@\000\000\000\000\000\000\000@\n\327\243p=\n\367?\315\314\314\314\314\314\002@\315\314\314\314\314\314\370?ffffff\016@\232\231\231\231\231\231\365?333333\007@\315\314\314\314\314\314\n@q=\n\327\243p\001@333333\005@\000\000\000\000\000\000\374?\232\231\231\231\231\231\r@\000\000\000\000\000\000\023@\n\327\243p=\n\367?333333\013@\000\000\000\000\000\000\006@\315\314\314\314\314\314\000@333333\377?\315\314\314\314\314\314\002@333333\377?\315\314\314\314\314\314\000@ffffff\000@ffffff\376?)\\\217\302\365(\364?\315\314\314\314\314\314\006@q=\n\327\243p\361?333333\377?\000\000\000\000\000\000\014@333333\007@333333\005@\315\314\314\314\314\314\374?\354Q\270\036\205\353\361?\315\314\314\314\314\314\370?333333\377?ffffff\366?\315\314\314\314\314\314\000@\315\314\314\314\314\314\002@q=\n\327\243p\001@\000\000\000\000\000\000\004@333333\t@\000\000\000\000\000\000\014@333333\t@\000\000\000\000\000\000\374?\354Q\270\036\205\353\361?\n\327\243p=\n\367?333333\007@\315\314\314\314\314\314\n@\000\000\000\000\000\000\000@\000\000\000\000\000\000\010@\315\314\314\314\314\314\n@\315\314\314\314\314\314\n@\232\231\231\231\231\231\r@\315\314\314\314\314\314\020@\315\314\314\314\314\314\370?\000\000\000\000\000\000\022@\000\000\000\000\000\000\374?ffffff\376?ffffff\014@\315\314\314\314\314\314\000@333333\003@q=\n\327\243p\001@\315\314\314\314\314\314\002@333333\013@q=\n\327\243p\001@\232\231\231\231\231\231\371?\n\327\243p=\n\367?ffffff\000@\000\000\000\000\000\000\004@\000\000\000\000\000\000\027@\315\314\314\314\314\314\002@ffffff\002@\315\314\314\314\314\314\020@\000\000\000\000\000\000\014@\315\314\314\314\314\314\020@\000\000\000\000\000\000\002@\315\314\314\314\314\314\006@\000\000\000\000\000\000\000@\232\231\231\231\231\231\r@333333\001@\315\314\314\314\314\314\006@\000\000\000\000\000\000\000@ffffff\002@\315\314\314\314\314\314\374?\000\000\000\000\000\000\023@ffffff\000@333333\001@\000\000\000\000\000\000\000@\232\231\231\231\231\231\007@\000\000\000\000\000\000\000@\315\314\314\314\314\314\002@\232\231\231\231\231\231\r@\315\314\314\314\314\314\000@\232\231\231\231\231\231\003@\232\231\231\231\231\231\003@\315\314\314\314\314\314\006@\000\000\000\000\000\000\004@333333\017@\000\000\000\000\000\000\014@\000\000\000\000\000\000\014@\315\314\314\314\314\314\002@\000\000\000\000\000\000\014@q=\n\327\243p\001@\000\000\000\000\000\000\014@\000\000\000\000\000\000\004@\315\314\314\314\314\314\000@\000\000\000\000\000\000\000@\315\314\314\314\314\314\002@\315\314\314\314\314\314\002@ffffff\014@333333\r@\315\314\314\314\314\314\000@\315\314\314\314\314\314\n@\315\314\314\314\314\314\n@\315\314\314\314\314\314\002@333333\005@\232\231\231\231\231\231\003@ffffff\014@333333\005@\315\314\314\314\314\314\374?\315\314\314\314\314\314\n@\000\000\000\000\000\000\002@333333\377?\315\314\314\314\314\314\370?\315\314\314\314\314\314\n@\315\314\314\314\314\314\006@\000\000\000\000\000\000\010@\000\000\000\000\000\000\000@\315\314\314\314\314\314\000@\000\000\000\000\000\000\370?\000\000\000\000\000\000\000@333333\005@ffffff\002@\315\314\314\314\314\314\006@ffffff\366?\315\314\314\314\314\314\016@\000\000\000\000\000\000\374?\000\000\000\000\000\000\002@\000\000\000\000\000\000\002@333333\017@q=\n\327\243p\001@ffffff\004@ffffff\366?ffffff\014@)\\\217\302\365(\364?333333\017@\232\231\231\231\231\231\007@\000\000\000\000\000\000\000@\232\231\231\231\231\231\007@\315\314\314\314\314\314\002@\000\000\000\000\000\000\014@333333\t@\000\000\000\000\000\000\000@\232\231\231\231\231\231\r@\000\000\000\000\000\000\n@\315\314\314\314\314\314\002@ffffff\000@333333\013@\232\231\231\231\231\231\r@333333\017@\315\314\314\314\314\314\000@ffffff\000@\000\000\000\000\000\000\004@\000\000\000\000\000\000\010@ffffff\000@\000\000\000\000\000\000\004@\000\000\000\000\000\000\010@\315\314\314\314\314\314\002@\232\231\231\231\231\231\007@\315\314\314\314\314\314\002@\315\314\314\314\314\314\000@\315\314\314\314\314\314\000@333333\t@\232\231\231\231\231\231\r@ffffff\000@q=\n\327\243p\001@\000\000\000\000\000\000\002@\000\000\000\000\000\000\004@\315\314\314\314\314\314\n@\315\314\314\314\314\314\006@\000\000\000\000\000\000\004@ffffff\376?\n\327\243p=\n\367?333333\001@\315\314\314\314\314\314\000@\315\314\314\314\314\314\n@ffffff\014@ffffff\002@\000\000\000\000\000\000\000@ffffff\372?\000\000\000\000\000\000\002@333333\013@\000\000\000\000\000\000\374?ffffff\014@\315\314\314\314\314\314\000@\315\314\314\314\314\314\n@\000\000\000\000\000\000\004@\000\000\000\000\000\000\014@\n\327\243p=\n\367?\000\000\000\000\000\000\022@\315\314\314\314\314\314\002@\315\314\314\314\314\314\n@333333\t@ffffff\004@\000\000\000\000\000\000\004@\000\000\000\000\000\000\026@\315\314\314\314\314\314\370?\000\000\000\000\000\000\025@333333\005@333333\017@\000\000\000\000\000\000\026@333333\003@\000\000\000\000\000\000\n@\315\314\314\314\314\314\020@\232\231\231\231\231\231\007@\315\314\314\314\314\314\002@\232\231\231\231\231\231\007@\000\000\000\000\000\000\024@\315\314\314\314\314\314\002@\000\000\000\000\000\000\026@\000\000\000\000\000\000\374?333333\005@ffffff\376?\000\000\000\000\000\000\004@ffffff\004@333333\001@ffffff\002@\000\000\000\000\000\000\000@\000\000\000\000\000\000\374?\000\000\000\000\000\000\014@\232\231\231\231\231\231\007@333333\017@\232\231\231\231\231\231\003@\000\000\000\000\000\000\023@ffffff\004@\000\000\000\000\000\000\000@{\024\256G\341z\370?\n\327\243p=\n\367?ffffff\366?333333\367?{\024\256G\341z\370?\315\314\314\314\314\314\002@\000\000\000\000\000\000\370?333333\013@ffffff\002@\315\314\314\314\314\314\002@\315\314\314\314\314\314\002@\232\231\231\231\231\231\013@333333\001@ffffff\014@\315\314\314\314\314\314\n@\315\314\314\314\314\314\006@\315\314\314\314\314\314\000@\232\231\231\231\231\231\r@q=\n\327\243p\001@H\341z\024\256G\365?\000\000\000\000\000\000\000@\000\000\000\000\000\000\023@{\024\256G\341z\370?"
      }
    }
  }
}
node {
  name: "tensors/component_5"
  op: "Const"
  device: "/device:CPU:0"
  attr {
    key: "_output_shapes"
    value {
      list {
        shape {
          dim {
            size: 739
          }
        }
      }
    }
  }
  attr {
    key: "dtype"
    value {
      type: DT_DOUBLE
    }
  }
  attr {
    key: "value"
    value {
      tensor {
        dtype: DT_DOUBLE
        tensor_shape {
          dim {
            size: 739
          }
        }
